{
  "version": "1.0",
  "truncation": null,
  "padding": null,
  "added_tokens": [
    {
      "id": 0,
      "content": "<pad>",
      "single_word": false,
      "lstrip": false,
      "rstrip": false,
      "normalized": false,
      "special": true
    },
    {
      "id": 1,
      "content": "<eos>",
      "single_word": false,
      "lstrip": false,
      "rstrip": false,
      "normalized": false,
      "special": true
    },
    {
      "id": 2,
      "content": "<bos>",
      "single_word": false,
      "lstrip": false,
      "rstrip": false,
      "normalized": false,
      "special": true
    },
    {
      "id": 3,
      "content": "<unk>",
      "single_word": false,
      "lstrip": false,
      "rstrip": false,
      "normalized": false,
      "special": true
    },
    {
      "id": 4,
      "content": "<start_of_turn>",
      "single_word": false,
      "lstrip": false,
      "rstrip": false,
      "normalized": false,
      "special": true
    },
    {
      "id": 5,
      "content": "<end_of_turn>",
      "single_word": false,
      "lstrip": false,
      "rstrip": false,
      "normalized": false,
      "special": true
    },
    {
      "id": 6,
      "content": "<mask>",
      "single_word": false,
      "lstrip": false,
      "rstrip": false,
      "normalized": false,
      "special": false
    },
    {
      "id": 7,
      "content": "<2mass>",
      "single_word": false,
      "lstrip": false,
      "rstrip": false,
      "normalized": false,
      "special": false
    },
    {
      "id": 8,
      "content": "[@BOS@]",
      "single_word": false,
      "lstrip": false,
      "rstrip": false,
      "normalized": false,
      "special": false
    },
    {
      "id": 9,
      "content": "<unused0>",
      "single_word": false,
      "lstrip": false,
      "rstrip": false,
      "normalized": false,
      "special": false
    },
    {
      "id": 10,
      "content": "<unused1>",
      "single_word": false,
      "lstrip": false,
      "rstrip": false,
      "normalized": false,
      "special": false
    },
    {
      "id": 11,
      "content": "<unused2>",
      "single_word": false,
      "lstrip": false,
      "rstrip": false,
      "normalized": false,
      "special": false
    },
    {
      "id": 12,
      "content": "<unused3>",
      "single_word": false,
      "lstrip": false,
      "rstrip": false,
      "normalized": false,
      "special": false
    },
    {
      "id": 13,
      "content": "<unused4>",
      "single_word": false,
      "lstrip": false,
      "rstrip": false,
      "normalized": false,
      "special": false
    },
    {
      "id": 14,
      "content": "<unused5>",
      "single_word": false,
      "lstrip": false,
      "rstrip": false,
      "normalized": false,
      "special": false
    },
    {
      "id": 15,
      "content": "<unused6>",
      "single_word": false,
      "lstrip": false,
      "rstrip": false,
      "normalized": false,
      "special": false
    },
    {
      "id": 16,
      "content": "<unused7>",
      "single_word": false,
      "lstrip": false,
      "rstrip": false,
      "normalized": false,
      "special": false
    },
    {
      "id": 17,
      "content": "<unused8>",
      "single_word": false,
      "lstrip": false,
      "rstrip": false,
      "normalized": false,
      "special": false
    },
    {
      "id": 18,
      "content": "<unused9>",
      "single_word": false,
      "lstrip": false,
      "rstrip": false,
      "normalized": false,
      "special": false
    },
    {
      "id": 19,
      "content": "<unused10>",
      "single_word": false,
      "lstrip": false,
      "rstrip": false,
      "normalized": false,
      "special": false
    },
    {
      "id": 20,
      "content": "<unused11>",
      "single_word": false,
      "lstrip": false,
      "rstrip": false,
      "normalized": false,
      "special": false
    },
    {
      "id": 21,
      "content": "<unused12>",
      "single_word": false,
      "lstrip": false,
      "rstrip": false,
      "normalized": false,
      "special": false
    },
    {
      "id": 22,
      "content": "<unused13>",
      "single_word": false,
      "lstrip": false,
      "rstrip": false,
      "normalized": false,
      "special": false
    },
    {
      "id": 23,
      "content": "<unused14>",
      "single_word": false,
      "lstrip": false,
      "rstrip": false,
      "normalized": false,
      "special": false
    },
    {
      "id": 24,
      "content": "<unused15>",
      "single_word": false,
      "lstrip": false,
      "rstrip": false,
      "normalized": false,
      "special": false
    },
    {
      "id": 25,
      "content": "<unused16>",
      "single_word": false,
      "lstrip": false,
      "rstrip": false,
      "normalized": false,
      "special": false
    },
    {
      "id": 26,
      "content": "<unused17>",
      "single_word": false,
      "lstrip": false,
      "rstrip": false,
      "normalized": false,
      "special": false
    },
    {
      "id": 27,
      "content": "<unused18>",
      "single_word": false,
      "lstrip": false,
      "rstrip": false,
      "normalized": false,
      "special": false
    },
    {
      "id": 28,
      "content": "<unused19>",
      "single_word": false,
      "lstrip": false,
      "rstrip": false,
      "normalized": false,
      "special": false
    },
    {
      "id": 29,
      "content": "<unused20>",
      "single_word": false,
      "lstrip": false,
      "rstrip": false,
      "normalized": false,
      "special": false
    },
    {
      "id": 30,
      "content": "<unused21>",
      "single_word": false,
      "lstrip": false,
      "rstrip": false,
      "normalized": false,
      "special": false
    },
    {
      "id": 31,
      "content": "<unused22>",
      "single_word": false,
      "lstrip": false,
      "rstrip": false,
      "normalized": false,
      "special": false
    },
    {
      "id": 32,
      "content": "<unused23>",
      "single_word": false,
      "lstrip": false,
      "rstrip": false,
      "normalized": false,
      "special": false
    },
    {
      "id": 33,
      "content": "<unused24>",
      "single_word": false,
      "lstrip": false,
      "rstrip": false,
      "normalized": false,
      "special": false
    },
    {
      "id": 34,
      "content": "<unused25>",
      "single_word": false,
      "lstrip": false,
      "rstrip": false,
      "normalized": false,
      "special": false
    },
    {
      "id": 35,
      "content": "<unused26>",
      "single_word": false,
      "lstrip": false,
      "rstrip": false,
      "normalized": false,
      "special": false
    },
    {
      "id": 36,
      "content": "<unused27>",
      "single_word": false,
      "lstrip": false,
      "rstrip": false,
      "normalized": false,
      "special": false
    },
    {
      "id": 37,
      "content": "<unused28>",
      "single_word": false,
      "lstrip": false,
      "rstrip": false,
      "normalized": false,
      "special": false
    },
    {
      "id": 38,
      "content": "<unused29>",
      "single_word": false,
      "lstrip": false,
      "rstrip": false,
      "normalized": false,
      "special": false
    },
    {
      "id": 39,
      "content": "<unused30>",
      "single_word": false,
      "lstrip": false,
      "rstrip": false,
      "normalized": false,
      "special": false
    },
    {
      "id": 40,
      "content": "<unused31>",
      "single_word": false,
      "lstrip": false,
      "rstrip": false,
      "normalized": false,
      "special": false
    },
    {
      "id": 41,
      "content": "<unused32>",
      "single_word": false,
      "lstrip": false,
      "rstrip": false,
      "normalized": false,
      "special": false
    },
    {
      "id": 42,
      "content": "<unused33>",
      "single_word": false,
      "lstrip": false,
      "rstrip": false,
      "normalized": false,
      "special": false
    },
    {
      "id": 43,
      "content": "<unused34>",
      "single_word": false,
      "lstrip": false,
      "rstrip": false,
      "normalized": false,
      "special": false
    },
    {
      "id": 44,
      "content": "<unused35>",
      "single_word": false,
      "lstrip": false,
      "rstrip": false,
      "normalized": false,
      "special": false
    },
    {
      "id": 45,
      "content": "<unused36>",
      "single_word": false,
      "lstrip": false,
      "rstrip": false,
      "normalized": false,
      "special": false
    },
    {
      "id": 46,
      "content": "<unused37>",
      "single_word": false,
      "lstrip": false,
      "rstrip": false,
      "normalized": false,
      "special": false
    },
    {
      "id": 47,
      "content": "<unused38>",
      "single_word": false,
      "lstrip": false,
      "rstrip": false,
      "normalized": false,
      "special": false
    },
    {
      "id": 48,
      "content": "<unused39>",
      "single_word": false,
      "lstrip": false,
      "rstrip": false,
      "normalized": false,
      "special": false
    },
    {
      "id": 49,
      "content": "<unused40>",
      "single_word": false,
      "lstrip": false,
      "rstrip": false,
      "normalized": false,
      "special": false
    },
    {
      "id": 50,
      "content": "<unused41>",
      "single_word": false,
      "lstrip": false,
      "rstrip": false,
      "normalized": false,
      "special": false
    },
    {
      "id": 51,
      "content": "<unused42>",
      "single_word": false,
      "lstrip": false,
      "rstrip": false,
      "normalized": false,
      "special": false
    },
    {
      "id": 52,
      "content": "<unused43>",
      "single_word": false,
      "lstrip": false,
      "rstrip": false,
      "normalized": false,
      "special": false
    },
    {
      "id": 53,
      "content": "<unused44>",
      "single_word": false,
      "lstrip": false,
      "rstrip": false,
      "normalized": false,
      "special": false
    },
    {
      "id": 54,
      "content": "<unused45>",
      "single_word": false,
      "lstrip": false,
      "rstrip": false,
      "normalized": false,
      "special": false
    },
    {
      "id": 55,
      "content": "<unused46>",
      "single_word": false,
      "lstrip": false,
      "rstrip": false,
      "normalized": false,
      "special": false
    },
    {
      "id": 56,
      "content": "<unused47>",
      "single_word": false,
      "lstrip": false,
      "rstrip": false,
      "normalized": false,
      "special": false
    },
    {
      "id": 57,
      "content": "<unused48>",
      "single_word": false,
      "lstrip": false,
      "rstrip": false,
      "normalized": false,
      "special": false
    },
    {
      "id": 58,
      "content": "<unused49>",
      "single_word": false,
      "lstrip": false,
      "rstrip": false,
      "normalized": false,
      "special": false
    },
    {
      "id": 59,
      "content": "<unused50>",
      "single_word": false,
      "lstrip": false,
      "rstrip": false,
      "normalized": false,
      "special": false
    },
    {
      "id": 60,
      "content": "<unused51>",
      "single_word": false,
      "lstrip": false,
      "rstrip": false,
      "normalized": false,
      "special": false
    },
    {
      "id": 61,
      "content": "<unused52>",
      "single_word": false,
      "lstrip": false,
      "rstrip": false,
      "normalized": false,
      "special": false
    },
    {
      "id": 62,
      "content": "<unused53>",
      "single_word": false,
      "lstrip": false,
      "rstrip": false,
      "normalized": false,
      "special": false
    },
    {
      "id": 63,
      "content": "<unused54>",
      "single_word": false,
      "lstrip": false,
      "rstrip": false,
      "normalized": false,
      "special": false
    },
    {
      "id": 64,
      "content": "<unused55>",
      "single_word": false,
      "lstrip": false,
      "rstrip": false,
      "normalized": false,
      "special": false
    },
    {
      "id": 65,
      "content": "<unused56>",
      "single_word": false,
      "lstrip": false,
      "rstrip": false,
      "normalized": false,
      "special": false
    },
    {
      "id": 66,
      "content": "<unused57>",
      "single_word": false,
      "lstrip": false,
      "rstrip": false,
      "normalized": false,
      "special": false
    },
    {
      "id": 67,
      "content": "<unused58>",
      "single_word": false,
      "lstrip": false,
      "rstrip": false,
      "normalized": false,
      "special": false
    },
    {
      "id": 68,
      "content": "<unused59>",
      "single_word": false,
      "lstrip": false,
      "rstrip": false,
      "normalized": false,
      "special": false
    },
    {
      "id": 69,
      "content": "<unused60>",
      "single_word": false,
      "lstrip": false,
      "rstrip": false,
      "normalized": false,
      "special": false
    },
    {
      "id": 70,
      "content": "<unused61>",
      "single_word": false,
      "lstrip": false,
      "rstrip": false,
      "normalized": false,
      "special": false
    },
    {
      "id": 71,
      "content": "<unused62>",
      "single_word": false,
      "lstrip": false,
      "rstrip": false,
      "normalized": false,
      "special": false
    },
    {
      "id": 72,
      "content": "<unused63>",
      "single_word": false,
      "lstrip": false,
      "rstrip": false,
      "normalized": false,
      "special": false
    },
    {
      "id": 73,
      "content": "<unused64>",
      "single_word": false,
      "lstrip": false,
      "rstrip": false,
      "normalized": false,
      "special": false
    },
    {
      "id": 74,
      "content": "<unused65>",
      "single_word": false,
      "lstrip": false,
      "rstrip": false,
      "normalized": false,
      "special": false
    },
    {
      "id": 75,
      "content": "<unused66>",
      "single_word": false,
      "lstrip": false,
      "rstrip": false,
      "normalized": false,
      "special": false
    },
    {
      "id": 76,
      "content": "<unused67>",
      "single_word": false,
      "lstrip": false,
      "rstrip": false,
      "normalized": false,
      "special": false
    },
    {
      "id": 77,
      "content": "<unused68>",
      "single_word": false,
      "lstrip": false,
      "rstrip": false,
      "normalized": false,
      "special": false
    },
    {
      "id": 78,
      "content": "<unused69>",
      "single_word": false,
      "lstrip": false,
      "rstrip": false,
      "normalized": false,
      "special": false
    },
    {
      "id": 79,
      "content": "<unused70>",
      "single_word": false,
      "lstrip": false,
      "rstrip": false,
      "normalized": false,
      "special": false
    },
    {
      "id": 80,
      "content": "<unused71>",
      "single_word": false,
      "lstrip": false,
      "rstrip": false,
      "normalized": false,
      "special": false
    },
    {
      "id": 81,
      "content": "<unused72>",
      "single_word": false,
      "lstrip": false,
      "rstrip": false,
      "normalized": false,
      "special": false
    },
    {
      "id": 82,
      "content": "<unused73>",
      "single_word": false,
      "lstrip": false,
      "rstrip": false,
      "normalized": false,
      "special": false
    },
    {
      "id": 83,
      "content": "<unused74>",
      "single_word": false,
      "lstrip": false,
      "rstrip": false,
      "normalized": false,
      "special": false
    },
    {
      "id": 84,
      "content": "<unused75>",
      "single_word": false,
      "lstrip": false,
      "rstrip": false,
      "normalized": false,
      "special": false
    },
    {
      "id": 85,
      "content": "<unused76>",
      "single_word": false,
      "lstrip": false,
      "rstrip": false,
      "normalized": false,
      "special": false
    },
    {
      "id": 86,
      "content": "<unused77>",
      "single_word": false,
      "lstrip": false,
      "rstrip": false,
      "normalized": false,
      "special": false
    },
    {
      "id": 87,
      "content": "<unused78>",
      "single_word": false,
      "lstrip": false,
      "rstrip": false,
      "normalized": false,
      "special": false
    },
    {
      "id": 88,
      "content": "<unused79>",
      "single_word": false,
      "lstrip": false,
      "rstrip": false,
      "normalized": false,
      "special": false
    },
    {
      "id": 89,
      "content": "<unused80>",
      "single_word": false,
      "lstrip": false,
      "rstrip": false,
      "normalized": false,
      "special": false
    },
    {
      "id": 90,
      "content": "<unused81>",
      "single_word": false,
      "lstrip": false,
      "rstrip": false,
      "normalized": false,
      "special": false
    },
    {
      "id": 91,
      "content": "<unused82>",
      "single_word": false,
      "lstrip": false,
      "rstrip": false,
      "normalized": false,
      "special": false
    },
    {
      "id": 92,
      "content": "<unused83>",
      "single_word": false,
      "lstrip": false,
      "rstrip": false,
      "normalized": false,
      "special": false
    },
    {
      "id": 93,
      "content": "<unused84>",
      "single_word": false,
      "lstrip": false,
      "rstrip": false,
      "normalized": false,
      "special": false
    },
    {
      "id": 94,
      "content": "<unused85>",
      "single_word": false,
      "lstrip": false,
      "rstrip": false,
      "normalized": false,
      "special": false
    },
    {
      "id": 95,
      "content": "<unused86>",
      "single_word": false,
      "lstrip": false,
      "rstrip": false,
      "normalized": false,
      "special": false
    },
    {
      "id": 96,
      "content": "<unused87>",
      "single_word": false,
      "lstrip": false,
      "rstrip": false,
      "normalized": false,
      "special": false
    },
    {
      "id": 97,
      "content": "<unused88>",
      "single_word": false,
      "lstrip": false,
      "rstrip": false,
      "normalized": false,
      "special": false
    },
    {
      "id": 98,
      "content": "<unused89>",
      "single_word": false,
      "lstrip": false,
      "rstrip": false,
      "normalized": false,
      "special": false
    },
    {
      "id": 99,
      "content": "<unused90>",
      "single_word": false,
      "lstrip": false,
      "rstrip": false,
      "normalized": false,
      "special": false
    },
    {
      "id": 100,
      "content": "<unused91>",
      "single_word": false,
      "lstrip": false,
      "rstrip": false,
      "normalized": false,
      "special": false
    },
    {
      "id": 101,
      "content": "<unused92>",
      "single_word": false,
      "lstrip": false,
      "rstrip": false,
      "normalized": false,
      "special": false
    },
    {
      "id": 102,
      "content": "<unused93>",
      "single_word": false,
      "lstrip": false,
      "rstrip": false,
      "normalized": false,
      "special": false
    },
    {
      "id": 103,
      "content": "<unused94>",
      "single_word": false,
      "lstrip": false,
      "rstrip": false,
      "normalized": false,
      "special": false
    },
    {
      "id": 104,
      "content": "<unused95>",
      "single_word": false,
      "lstrip": false,
      "rstrip": false,
      "normalized": false,
      "special": false
    },
    {
      "id": 105,
      "content": "<unused96>",
      "single_word": false,
      "lstrip": false,
      "rstrip": false,
      "normalized": false,
      "special": false
    },
    {
      "id": 106,
      "content": "<unused97>",
      "single_word": false,
      "lstrip": false,
      "rstrip": false,
      "normalized": false,
      "special": false
    },
    {
      "id": 107,
      "content": "<unused98>",
      "single_word": false,
      "lstrip": false,
      "rstrip": false,
      "normalized": false,
      "special": false
    },
    {
      "id": 108,
      "content": "▁▁",
      "single_word": false,
      "lstrip": false,
      "rstrip": false,
      "normalized": false,
      "special": false
    },
    {
      "id": 109,
      "content": "▁▁▁",
      "single_word": false,
      "lstrip": false,
      "rstrip": false,
      "normalized": false,
      "special": false
    },
    {
      "id": 110,
      "content": "▁▁▁▁",
      "single_word": false,
      "lstrip": false,
      "rstrip": false,
      "normalized": false,
      "special": false
    },
    {
      "id": 111,
      "content": "▁▁▁▁▁",
      "single_word": false,
      "lstrip": false,
      "rstrip": false,
      "normalized": false,
      "special": false
    },
    {
      "id": 112,
      "content": "▁▁▁▁▁▁",
      "single_word": false,
      "lstrip": false,
      "rstrip": false,
      "normalized": false,
      "special": false
    },
    {
      "id": 113,
      "content": "▁▁▁▁▁▁▁",
      "single_word": false,
      "lstrip": false,
      "rstrip": false,
      "normalized": false,
      "special": false
    },
    {
      "id": 114,
      "content": "▁▁▁▁▁▁▁▁",
      "single_word": false,
      "lstrip": false,
      "rstrip": false,
      "normalized": false,
      "special": false
    },
    {
      "id": 115,
      "content": "▁▁▁▁▁▁▁▁▁",
      "single_word": false,
      "lstrip": false,
      "rstrip": false,
      "normalized": false,
      "special": false
    },
    {
      "id": 116,
      "content": "▁▁▁▁▁▁▁▁▁▁",
      "single_word": false,
      "lstrip": false,
      "rstrip": false,
      "normalized": false,
      "special": false
    },
    {
      "id": 117,
      "content": "▁▁▁▁▁▁▁▁▁▁▁",
      "single_word": false,
      "lstrip": false,
      "rstrip": false,
      "normalized": false,
      "special": false
    },
    {
      "id": 118,
      "content": "▁▁▁▁▁▁▁▁▁▁▁▁",
      "single_word": false,
      "lstrip": false,
      "rstrip": false,
      "normalized": false,
      "special": false
    },
    {
      "id": 119,
      "content": "▁▁▁▁▁▁▁▁▁▁▁▁▁",
      "single_word": false,
      "lstrip": false,
      "rstrip": false,
      "normalized": false,
      "special": false
    },
    {
      "id": 120,
      "content": "▁▁▁▁▁▁▁▁▁▁▁▁▁▁",
      "single_word": false,
      "lstrip": false,
      "rstrip": false,
      "normalized": false,
      "special": false
    },
    {
      "id": 121,
      "content": "▁▁▁▁▁▁▁▁▁▁▁▁▁▁▁",
      "single_word": false,
      "lstrip": false,
      "rstrip": false,
      "normalized": false,
      "special": false
    },
    {
      "id": 122,
      "content": "▁▁▁▁▁▁▁▁▁▁▁▁▁▁▁▁",
      "single_word": false,
      "lstrip": false,
      "rstrip": false,
      "normalized": false,
      "special": false
    },
    {
      "id": 123,
      "content": "▁▁▁▁▁▁▁▁▁▁▁▁▁▁▁▁▁",
      "single_word": false,
      "lstrip": false,
      "rstrip": false,
      "normalized": false,
      "special": false
    },
    {
      "id": 124,
      "content": "▁▁▁▁▁▁▁▁▁▁▁▁▁▁▁▁▁▁",
      "single_word": false,
      "lstrip": false,
      "rstrip": false,
      "normalized": false,
      "special": false
    },
    {
      "id": 125,
      "content": "▁▁▁▁▁▁▁▁▁▁▁▁▁▁▁▁▁▁▁",
      "single_word": false,
      "lstrip": false,
      "rstrip": false,
      "normalized": false,
      "special": false
    },
    {
      "id": 126,
      "content": "▁▁▁▁▁▁▁▁▁▁▁▁▁▁▁▁▁▁▁▁",
      "single_word": false,
      "lstrip": false,
      "rstrip": false,
      "normalized": false,
      "special": false
    },
    {
      "id": 127,
      "content": "▁▁▁▁▁▁▁▁▁▁▁▁▁▁▁▁▁▁▁▁▁",
      "single_word": false,
      "lstrip": false,
      "rstrip": false,
      "normalized": false,
      "special": false
    },
    {
      "id": 128,
      "content": "▁▁▁▁▁▁▁▁▁▁▁▁▁▁▁▁▁▁▁▁▁▁",
      "single_word": false,
      "lstrip": false,
      "rstrip": false,
      "normalized": false,
      "special": false
    },
    {
      "id": 129,
      "content": "▁▁▁▁▁▁▁▁▁▁▁▁▁▁▁▁▁▁▁▁▁▁▁",
      "single_word": false,
      "lstrip": false,
      "rstrip": false,
      "normalized": false,
      "special": false
    },
    {
      "id": 130,
      "content": "▁▁▁▁▁▁▁▁▁▁▁▁▁▁▁▁▁▁▁▁▁▁▁▁",
      "single_word": false,
      "lstrip": false,
      "rstrip": false,
      "normalized": false,
      "special": false
    },
    {
      "id": 131,
      "content": "▁▁▁▁▁▁▁▁▁▁▁▁▁▁▁▁▁▁▁▁▁▁▁▁▁",
      "single_word": false,
      "lstrip": false,
      "rstrip": false,
      "normalized": false,
      "special": false
    },
    {
      "id": 132,
      "content": "▁▁▁▁▁▁▁▁▁▁▁▁▁▁▁▁▁▁▁▁▁▁▁▁▁▁",
      "single_word": false,
      "lstrip": false,
      "rstrip": false,
      "normalized": false,
      "special": false
    },
    {
      "id": 133,
      "content": "▁▁▁▁▁▁▁▁▁▁▁▁▁▁▁▁▁▁▁▁▁▁▁▁▁▁▁",
      "single_word": false,
      "lstrip": false,
      "rstrip": false,
      "normalized": false,
      "special": false
    },
    {
      "id": 134,
      "content": "▁▁▁▁▁▁▁▁▁▁▁▁▁▁▁▁▁▁▁▁▁▁▁▁▁▁▁▁",
      "single_word": false,
      "lstrip": false,
      "rstrip": false,
      "normalized": false,
      "special": false
    },
    {
      "id": 135,
      "content": "▁▁▁▁▁▁▁▁▁▁▁▁▁▁▁▁▁▁▁▁▁▁▁▁▁▁▁▁▁",
      "single_word": false,
      "lstrip": false,
      "rstrip": false,
      "normalized": false,
      "special": false
    },
    {
      "id": 136,
      "content": "▁▁▁▁▁▁▁▁▁▁▁▁▁▁▁▁▁▁▁▁▁▁▁▁▁▁▁▁▁▁",
      "single_word": false,
      "lstrip": false,
      "rstrip": false,
      "normalized": false,
      "special": false
    },
    {
      "id": 137,
      "content": "▁▁▁▁▁▁▁▁▁▁▁▁▁▁▁▁▁▁▁▁▁▁▁▁▁▁▁▁▁▁▁",
      "single_word": false,
      "lstrip": false,
      "rstrip": false,
      "normalized": false,
      "special": false
    },
    {
      "id": 138,
      "content": "<table>",
      "single_word": false,
      "lstrip": false,
      "rstrip": false,
      "normalized": false,
      "special": false
    },
    {
      "id": 139,
      "content": "<caption>",
      "single_word": false,
      "lstrip": false,
      "rstrip": false,
      "normalized": false,
      "special": false
    },
    {
      "id": 140,
      "content": "<thead>",
      "single_word": false,
      "lstrip": false,
      "rstrip": false,
      "normalized": false,
      "special": false
    },
    {
      "id": 141,
      "content": "<tbody>",
      "single_word": false,
      "lstrip": false,
      "rstrip": false,
      "normalized": false,
      "special": false
    },
    {
      "id": 142,
      "content": "<tfoot>",
      "single_word": false,
      "lstrip": false,
      "rstrip": false,
      "normalized": false,
      "special": false
    },
    {
      "id": 143,
      "content": "<tr>",
      "single_word": false,
      "lstrip": false,
      "rstrip": false,
      "normalized": false,
      "special": false
    },
    {
      "id": 144,
      "content": "<th>",
      "single_word": false,
      "lstrip": false,
      "rstrip": false,
      "normalized": false,
      "special": false
    },
    {
      "id": 145,
      "content": "<td>",
      "single_word": false,
      "lstrip": false,
      "rstrip": false,
      "normalized": false,
      "special": false
    },
    {
      "id": 146,
      "content": "</table>",
      "single_word": false,
      "lstrip": false,
      "rstrip": false,
      "normalized": false,
      "special": false
    },
    {
      "id": 147,
      "content": "</caption>",
      "single_word": false,
      "lstrip": false,
      "rstrip": false,
      "normalized": false,
      "special": false
    },
    {
      "id": 148,
      "content": "</thead>",
      "single_word": false,
      "lstrip": false,
      "rstrip": false,
      "normalized": false,
      "special": false
    },
    {
      "id": 149,
      "content": "</tbody>",
      "single_word": false,
      "lstrip": false,
      "rstrip": false,
      "normalized": false,
      "special": false
    },
    {
      "id": 150,
      "content": "</tfoot>",
      "single_word": false,
      "lstrip": false,
      "rstrip": false,
      "normalized": false,
      "special": false
    },
    {
      "id": 151,
      "content": "</tr>",
      "single_word": false,
      "lstrip": false,
      "rstrip": false,
      "normalized": false,
      "special": false
    },
    {
      "id": 152,
      "content": "</th>",
      "single_word": false,
      "lstrip": false,
      "rstrip": false,
      "normalized": false,
      "special": false
    },
    {
      "id": 153,
      "content": "</td>",
      "single_word": false,
      "lstrip": false,
      "rstrip": false,
      "normalized": false,
      "special": false
    },
    {
      "id": 154,
      "content": "<h1>",
      "single_word": false,
      "lstrip": false,
      "rstrip": false,
      "normalized": false,
      "special": false
    },
    {
      "id": 155,
      "content": "<h2>",
      "single_word": false,
      "lstrip": false,
      "rstrip": false,
      "normalized": false,
      "special": false
    },
    {
      "id": 156,
      "content": "<h3>",
      "single_word": false,
      "lstrip": false,
      "rstrip": false,
      "normalized": false,
      "special": false
    },
    {
      "id": 157,
      "content": "<h4>",
      "single_word": false,
      "lstrip": false,
      "rstrip": false,
      "normalized": false,
      "special": false
    },
    {
      "id": 158,
      "content": "<h5>",
      "single_word": false,
      "lstrip": false,
      "rstrip": false,
      "normalized": false,
      "special": false
    },
    {
      "id": 159,
      "content": "<h6>",
      "single_word": false,
      "lstrip": false,
      "rstrip": false,
      "normalized": false,
      "special": false
    },
    {
      "id": 160,
      "content": "<blockquote>",
      "single_word": false,
      "lstrip": false,
      "rstrip": false,
      "normalized": false,
      "special": false
    },
    {
      "id": 161,
      "content": "</h1>",
      "single_word": false,
      "lstrip": false,
      "rstrip": false,
      "normalized": false,
      "special": false
    },
    {
      "id": 162,
      "content": "</h2>",
      "single_word": false,
      "lstrip": false,
      "rstrip": false,
      "normalized": false,
      "special": false
    },
    {
      "id": 163,
      "content": "</h3>",
      "single_word": false,
      "lstrip": false,
      "rstrip": false,
      "normalized": false,
      "special": false
    },
    {
      "id": 164,
      "content": "</h4>",
      "single_word": false,
      "lstrip": false,
      "rstrip": false,
      "normalized": false,
      "special": false
    },
    {
      "id": 165,
      "content": "</h5>",
      "single_word": false,
      "lstrip": false,
      "rstrip": false,
      "normalized": false,
      "special": false
    },
    {
      "id": 166,
      "content": "</h6>",
      "single_word": false,
      "lstrip": false,
      "rstrip": false,
      "normalized": false,
      "special": false
    },
    {
      "id": 167,
      "content": "</blockquote>",
      "single_word": false,
      "lstrip": false,
      "rstrip": false,
      "normalized": false,
      "special": false
    },
    {
      "id": 168,
      "content": "<strong>",
      "single_word": false,
      "lstrip": false,
      "rstrip": false,
      "normalized": false,
      "special": false
    },
    {
      "id": 169,
      "content": "<em>",
      "single_word": false,
      "lstrip": false,
      "rstrip": false,
      "normalized": false,
      "special": false
    },
    {
      "id": 170,
      "content": "<b>",
      "single_word": false,
      "lstrip": false,
      "rstrip": false,
      "normalized": false,
      "special": false
    },
    {
      "id": 171,
      "content": "<i>",
      "single_word": false,
      "lstrip": false,
      "rstrip": false,
      "normalized": false,
      "special": false
    },
    {
      "id": 172,
      "content": "<u>",
      "single_word": false,
      "lstrip": false,
      "rstrip": false,
      "normalized": false,
      "special": false
    },
    {
      "id": 173,
      "content": "<sub>",
      "single_word": false,
      "lstrip": false,
      "rstrip": false,
      "normalized": false,
      "special": false
    },
    {
      "id": 174,
      "content": "<sup>",
      "single_word": false,
      "lstrip": false,
      "rstrip": false,
      "normalized": false,
      "special": false
    },
    {
      "id": 175,
      "content": "<code>",
      "single_word": false,
      "lstrip": false,
      "rstrip": false,
      "normalized": false,
      "special": false
    },
    {
      "id": 176,
      "content": "</strong>",
      "single_word": false,
      "lstrip": false,
      "rstrip": false,
      "normalized": false,
      "special": false
    },
    {
      "id": 177,
      "content": "</em>",
      "single_word": false,
      "lstrip": false,
      "rstrip": false,
      "normalized": false,
      "special": false
    },
    {
      "id": 178,
      "content": "</b>",
      "single_word": false,
      "lstrip": false,
      "rstrip": false,
      "normalized": false,
      "special": false
    },
    {
      "id": 179,
      "content": "</i>",
      "single_word": false,
      "lstrip": false,
      "rstrip": false,
      "normalized": false,
      "special": false
    },
    {
      "id": 180,
      "content": "</u>",
      "single_word": false,
      "lstrip": false,
      "rstrip": false,
      "normalized": false,
      "special": false
    },
    {
      "id": 181,
      "content": "</sub>",
      "single_word": false,
      "lstrip": false,
      "rstrip": false,
      "normalized": false,
      "special": false
    },
    {
      "id": 182,
      "content": "</sup>",
      "single_word": false,
      "lstrip": false,
      "rstrip": false,
      "normalized": false,
      "special": false
    },
    {
      "id": 183,
      "content": "</code>",
      "single_word": false,
      "lstrip": false,
      "rstrip": false,
      "normalized": false,
      "special": false
    },
    {
      "id": 184,
      "content": "[toxicity=0]",
      "single_word": false,
      "lstrip": false,
      "rstrip": false,
      "normalized": false,
      "special": false
    },
    {
      "id": 185,
      "content": "<unused99>",
      "single_word": false,
      "lstrip": false,
      "rstrip": false,
      "normalized": false,
      "special": false
    },
    {
      "id": 32000,
      "content": "</s>",
      "single_word": false,
      "lstrip": false,
      "rstrip": false,
      "normalized": false,
      "special": false
    },
    {
      "id": 32001,
      "content": "<s>",
      "single_word": false,
      "lstrip": false,
      "rstrip": false,
      "normalized": false,
      "special": false
    }
  ],
  "normalizer": {
    "type": "Replace",
    "pattern": {
      "String": " "
    },
    "content": "▁"
  },
  "pre_tokenizer": {
    "type": "Split",
    "pattern": {
      "String": " "
    },
    "behavior": "MergedWithPrevious",
    "invert": false
  },
  "post_processor": {
    "type": "TemplateProcessing",
    "single": [
      {
        "SpecialToken": {
          "id": "<bos>",
          "type_id": 0
        }
      },
      {
        "Sequence": {
          "id": "A",
          "type_id": 0
        }
      }
    ],
    "pair": [
      {
        "SpecialToken": {
          "id": "<bos>",
          "type_id": 0
        }
      },
      {
        "Sequence": {
          "id": "A",
          "type_id": 0
        }
      },
      {
        "SpecialToken": {
          "id": "<bos>",
          "type_id": 1
        }
      },
      {
        "Sequence": {
          "id": "B",
          "type_id": 1
        }
      }
    ],
    "special_tokens": {
      "<bos>": {
        "id": "<bos>",
        "ids": [
          2
        ],
        "tokens": [
          "<bos>"
        ]
      }
    }
  },
  "decoder": {
    "type": "Sequence",
    "decoders": [
      {
        "type": "Replace",
        "pattern": {
          "String": "▁"
        },
        "content": " "
      },
      {
        "type": "ByteFallback"
      },
      {
        "type": "Fuse"
      }
    ]
  },
  "model": {
    "type": "BPE",
    "dropout": null,
    "unk_token": "<unk>",
    "continuing_subword_prefix": null,
    "end_of_word_suffix": null,
    "fuse_unk": true,
    "byte_fallback": true,
    "ignore_merges": false,
    "vocab": {
      "<pad>": 0,
      "<eos>": 1,
      "<bos>": 2,
      "<unk>": 3,
      "<start_of_turn>": 4,
      "<end_of_turn>": 5,
      "<mask>": 6,
      "<2mass>": 7,
      "[@BOS@]": 8,
      "<unused0>": 9,
      "<unused1>": 10,
      "<unused2>": 11,
      "<unused3>": 12,
      "<unused4>": 13,
      "<unused5>": 14,
      "<unused6>": 15,
      "<unused7>": 16,
      "<unused8>": 17,
      "<unused9>": 18,
      "<unused10>": 19,
      "<unused11>": 20,
      "<unused12>": 21,
      "<unused13>": 22,
      "<unused14>": 23,
      "<unused15>": 24,
      "<unused16>": 25,
      "<unused17>": 26,
      "<unused18>": 27,
      "<unused19>": 28,
      "<unused20>": 29,
      "<unused21>": 30,
      "<unused22>": 31,
      "<unused23>": 32,
      "<unused24>": 33,
      "<unused25>": 34,
      "<unused26>": 35,
      "<unused27>": 36,
      "<unused28>": 37,
      "<unused29>": 38,
      "<unused30>": 39,
      "<unused31>": 40,
      "<unused32>": 41,
      "<unused33>": 42,
      "<unused34>": 43,
      "<unused35>": 44,
      "<unused36>": 45,
      "<unused37>": 46,
      "<unused38>": 47,
      "<unused39>": 48,
      "<unused40>": 49,
      "<unused41>": 50,
      "<unused42>": 51,
      "<unused43>": 52,
      "<unused44>": 53,
      "<unused45>": 54,
      "<unused46>": 55,
      "<unused47>": 56,
      "<unused48>": 57,
      "<unused49>": 58,
      "<unused50>": 59,
      "<unused51>": 60,
      "<unused52>": 61,
      "<unused53>": 62,
      "<unused54>": 63,
      "<unused55>": 64,
      "<unused56>": 65,
      "<unused57>": 66,
      "<unused58>": 67,
      "<unused59>": 68,
      "<unused60>": 69,
      "<unused61>": 70,
      "<unused62>": 71,
      "<unused63>": 72,
      "<unused64>": 73,
      "<unused65>": 74,
      "<unused66>": 75,
      "<unused67>": 76,
      "<unused68>": 77,
      "<unused69>": 78,
      "<unused70>": 79,
      "<unused71>": 80,
      "<unused72>": 81,
      "<unused73>": 82,
      "<unused74>": 83,
      "<unused75>": 84,
      "<unused76>": 85,
      "<unused77>": 86,
      "<unused78>": 87,
      "<unused79>": 88,
      "<unused80>": 89,
      "<unused81>": 90,
      "<unused82>": 91,
      "<unused83>": 92,
      "<unused84>": 93,
      "<unused85>": 94,
      "<unused86>": 95,
      "<unused87>": 96,
      "<unused88>": 97,
      "<unused89>": 98,
      "<unused90>": 99,
      "<unused91>": 100,
      "<unused92>": 101,
      "<unused93>": 102,
      "<unused94>": 103,
      "<unused95>": 104,
      "<unused96>": 105,
      "<unused97>": 106,
      "<unused98>": 107,
      "▁▁": 108,
      "▁▁▁": 109,
      "▁▁▁▁": 110,
      "▁▁▁▁▁": 111,
      "▁▁▁▁▁▁": 112,
      "▁▁▁▁▁▁▁": 113,
      "▁▁▁▁▁▁▁▁": 114,
      "▁▁▁▁▁▁▁▁▁": 115,
      "▁▁▁▁▁▁▁▁▁▁": 116,
      "▁▁▁▁▁▁▁▁▁▁▁": 117,
      "▁▁▁▁▁▁▁▁▁▁▁▁": 118,
      "▁▁▁▁▁▁▁▁▁▁▁▁▁": 119,
      "▁▁▁▁▁▁▁▁▁▁▁▁▁▁": 120,
      "▁▁▁▁▁▁▁▁▁▁▁▁▁▁▁": 121,
      "▁▁▁▁▁▁▁▁▁▁▁▁▁▁▁▁": 122,
      "▁▁▁▁▁▁▁▁▁▁▁▁▁▁▁▁▁": 123,
      "▁▁▁▁▁▁▁▁▁▁▁▁▁▁▁▁▁▁": 124,
      "▁▁▁▁▁▁▁▁▁▁▁▁▁▁▁▁▁▁▁": 125,
      "▁▁▁▁▁▁▁▁▁▁▁▁▁▁▁▁▁▁▁▁": 126,
      "▁▁▁▁▁▁▁▁▁▁▁▁▁▁▁▁▁▁▁▁▁": 127,
      "▁▁▁▁▁▁▁▁▁▁▁▁▁▁▁▁▁▁▁▁▁▁": 128,
      "▁▁▁▁▁▁▁▁▁▁▁▁▁▁▁▁▁▁▁▁▁▁▁": 129,
      "▁▁▁▁▁▁▁▁▁▁▁▁▁▁▁▁▁▁▁▁▁▁▁▁": 130,
      "▁▁▁▁▁▁▁▁▁▁▁▁▁▁▁▁▁▁▁▁▁▁▁▁▁": 131,
      "▁▁▁▁▁▁▁▁▁▁▁▁▁▁▁▁▁▁▁▁▁▁▁▁▁▁": 132,
      "▁▁▁▁▁▁▁▁▁▁▁▁▁▁▁▁▁▁▁▁▁▁▁▁▁▁▁": 133,
      "▁▁▁▁▁▁▁▁▁▁▁▁▁▁▁▁▁▁▁▁▁▁▁▁▁▁▁▁": 134,
      "▁▁▁▁▁▁▁▁▁▁▁▁▁▁▁▁▁▁▁▁▁▁▁▁▁▁▁▁▁": 135,
      "▁▁▁▁▁▁▁▁▁▁▁▁▁▁▁▁▁▁▁▁▁▁▁▁▁▁▁▁▁▁": 136,
      "▁▁▁▁▁▁▁▁▁▁▁▁▁▁▁▁▁▁▁▁▁▁▁▁▁▁▁▁▁▁▁": 137,
      "<table>": 138,
      "<caption>": 139,
      "<thead>": 140,
      "<tbody>": 141,
      "<tfoot>": 142,
      "<tr>": 143,
      "<th>": 144,
      "<td>": 145,
      "</table>": 146,
      "</caption>": 147,
      "</thead>": 148,
      "</tbody>": 149,
      "</tfoot>": 150,
      "</tr>": 151,
      "</th>": 152,
      "</td>": 153,
      "<h1>": 154,
      "<h2>": 155,
      "<h3>": 156,
      "<h4>": 157,
      "<h5>": 158,
      "<h6>": 159,
      "<blockquote>": 160,
      "</h1>": 161,
      "</h2>": 162,
      "</h3>": 163,
      "</h4>": 164,
      "</h5>": 165,
      "</h6>": 166,
      "</blockquote>": 167,
      "<strong>": 168,
      "<em>": 169,
      "<b>": 170,
      "<i>": 171,
      "<u>": 172,
      "<sub>": 173,
      "<sup>": 174,
      "<code>": 175,
      "</strong>": 176,
      "</em>": 177,
      "</b>": 178,
      "</i>": 179,
      "</u>": 180,
      "</sub>": 181,
      "</sup>": 182,
      "</code>": 183,
      "[toxicity=0]": 184,
      "<unused99>": 185,
      "ال": 186,
      "▁ال": 187,
      "▁م": 188,
      "▁و": 189,
      "▁ب": 190,
      "▁ف": 191,
      "▁أ": 192,
      "▁ل": 193,
      "▁ع": 194,
      "▁ت": 195,
      "ية": 196,
      "ات": 197,
      "▁الم": 198,
      "ان": 199,
      "ار": 200,
      "▁في": 201,
      "▁من": 202,
      "▁ي": 203,
      "ين": 204,
      "ام": 205,
      "لى": 206,
      "ها": 207,
      "▁ك": 208,
      "▁إ": 209,
      "ير": 210,
      "▁الت": 211,
      "▁وال": 212,
      "▁،": 213,
      "ول": 214,
      "▁ح": 215,
      "▁.": 216,
      "▁الأ": 217,
      "ون": 218,
      "را": 219,
      "ست": 220,
      "نا": 221,
      "▁ا": 222,
      "ري": 223,
      "▁ه": 224,
      "▁س": 225,
      "لا": 226,
      "▁ق": 227,
      "▁الع": 228,
      "▁على": 229,
      "ما": 230,
      "لي": 231,
      "وا": 232,
      "دي": 233,
      "▁ن": 234,
      "ور": 235,
      "▁أن": 236,
      "▁لل": 237,
      "▁ج": 238,
      "اب": 239,
      "يا": 240,
      "▁الح": 241,
      "▁الس": 242,
      "دة": 243,
      "▁ش": 244,
      "دا": 245,
      "▁خ": 246,
      "بي": 247,
      "هم": 248,
      "وم": 249,
      "▁بال": 250,
      "▁ر": 251,
      "▁مع": 252,
      "لك": 253,
      "▁عن": 254,
      "▁الج": 255,
      "▁\"": 256,
      "ذا": 257,
      "▁الق": 258,
      "لة": 259,
      "▁د": 260,
      "▁الا": 261,
      "▁الش": 262,
      "رة": 263,
      "▁الف": 264,
      "▁ص": 265,
      "عد": 266,
      "▁الإ": 267,
      "ائ": 268,
      "عة": 269,
      "▁إلى": 270,
      "▁الب": 271,
      "اء": 272,
      "رك": 273,
      "رب": 274,
      "اد": 275,
      "يل": 276,
      "من": 277,
      "▁الن": 278,
      "▁الك": 279,
      "▁الد": 280,
      "اف": 281,
      "▁ط": 282,
      "مل": 283,
      "وق": 284,
      "مة": 285,
      "▁الص": 286,
      "قة": 287,
      "ارة": 288,
      "▁الخ": 289,
      "يد": 290,
      "▁وت": 291,
      "لم": 292,
      "▁ما": 293,
      "رو": 294,
      "قد": 295,
      "▁(": 296,
      "▁الل": 297,
      "▁لا": 298,
      "كن": 299,
      "مي": 300,
      "بر": 301,
      "..": 302,
      "ود": 303,
      "▁التي": 304,
      "سي": 305,
      "▁الذ": 306,
      "سب": 307,
      "▁ان": 308,
      "▁الر": 309,
      "▁أو": 310,
      "اح": 311,
      "▁مح": 312,
      "تم": 313,
      "في": 314,
      "عل": 315,
      "▁وأ": 316,
      "قي": 317,
      "نت": 318,
      "ني": 319,
      "فا": 320,
      "وي": 321,
      "▁غ": 322,
      "ذه": 323,
      "عر": 324,
      "ذلك": 325,
      "▁الط": 326,
      "كل": 327,
      "▁تح": 328,
      "يس": 329,
      "▁لم": 330,
      "▁-": 331,
      "▁الو": 332,
      "وب": 333,
      "\"\"": 334,
      "تي": 335,
      "يف": 336,
      "▁علي": 337,
      "بل": 338,
      "مر": 339,
      "▁\"\"": 340,
      "▁هذا": 341,
      "نة": 342,
      "▁كان": 343,
      "عت": 344,
      "خر": 345,
      "صل": 346,
      "تح": 347,
      "▁وم": 348,
      "وج": 349,
      "▁آ": 350,
      "▁است": 351,
      "سم": 352,
      "سل": 353,
      "ته": 354,
      "سا": 355,
      "صر": 356,
      "كر": 357,
      "▁:": 358,
      "لال": 359,
      "▁كل": 360,
      "عا": 361,
      "تر": 362,
      "جم": 363,
      "شر": 364,
      "دم": 365,
      "عب": 366,
      "▁الله": 367,
      "يم": 368,
      "ارات": 369,
      "كون": 370,
      "اني": 371,
      "▁ث": 372,
      "▁وه": 373,
      "با": 374,
      "اج": 375,
      "حة": 376,
      "▁هذه": 377,
      "عم": 378,
      "▁الث": 379,
      "اص": 380,
      "جل": 381,
      "▁الذي": 382,
      "قت": 383,
      "وف": 384,
      "يرة": 385,
      "أن": 386,
      "▁أي": 387,
      "ًا": 388,
      "هر": 389,
      "عي": 390,
      "لف": 391,
      "حد": 392,
      "▁وي": 393,
      "▁إن": 394,
      "▁بين": 395,
      "▁ز": 396,
      "جر": 397,
      "سة": 398,
      "حت": 399,
      "راء": 400,
      "▁والم": 401,
      "ديد": 402,
      "▁الي": 403,
      "▁بعد": 404,
      "▁هو": 405,
      "وع": 406,
      "اري": 407,
      "طة": 408,
      "لب": 409,
      "كت": 410,
      "بد": 411,
      "▁مت": 412,
      "قا": 413,
      "▁تع": 414,
      "ثر": 415,
      "الم": 416,
      "▁بن": 417,
      "كم": 418,
      "الي": 419,
      "▁ض": 420,
      "خت": 421,
      "وس": 422,
      "در": 423,
      "قل": 424,
      "▁وا": 425,
      "هد": 426,
      "بة": 427,
      "▁يم": 428,
      "▁المت": 429,
      "▁وب": 430,
      "▁كس": 431,
      "ولة": 432,
      "فة": 433,
      "خص": 434,
      "مد": 435,
      "جه": 436,
      "خل": 437,
      "▁ذلك": 438,
      "عض": 439,
      "كان": 440,
      "زي": 441,
      "▁مش": 442,
      "▁تم": 443,
      "ركة": 444,
      "فس": 445,
      "▁أم": 446,
      "وض": 447,
      "▁حي": 448,
      "فض": 449,
      "رض": 450,
      "▁المح": 451,
      "▁خلال": 452,
      "ند": 453,
      "▁أك": 454,
      "▁وق": 455,
      "ئيس": 456,
      "ورة": 457,
      "بار": 458,
      "▁يت": 459,
      "▁لت": 460,
      "وات": 461,
      "▁اله": 462,
      "▁تق": 463,
      "ريق": 464,
      "الة": 465,
      "تها": 466,
      "in": 467,
      "▁مط": 468,
      "اض": 469,
      "رق": 470,
      "▁مص": 471,
      "حي": 472,
      "انية": 473,
      "▁الغ": 474,
      "▁هي": 475,
      "▁مس": 476,
      "▁سي": 477,
      "▁الأم": 478,
      "▁المن": 479,
      "اع": 480,
      "إن": 481,
      "▁بم": 482,
      "▁كسارة": 483,
      "وت": 484,
      "er": 485,
      "▁كما": 486,
      "الية": 487,
      "▁)": 488,
      "▁يمكن": 489,
      "▁والت": 490,
      "امة": 491,
      "افة": 492,
      "كس": 493,
      "▁مد": 494,
      "اه": 495,
      "▁...": 496,
      "وز": 497,
      "▁قد": 498,
      "وى": 499,
      "ثل": 500,
      "▁له": 501,
      "حن": 502,
      "▁وس": 503,
      "وية": 504,
      "يات": 505,
      "▁,": 506,
      "▁بي": 507,
      "اً": 508,
      "▁فى": 509,
      "وري": 510,
      "▁المش": 511,
      "عية": 512,
      "نية": 513,
      "▁للم": 514,
      "▁ذ": 515,
      "رائ": 516,
      "▁المست": 517,
      "▁الان": 518,
      "▁بش": 519,
      "▁تن": 520,
      "طر": 521,
      "▁تت": 522,
      "فع": 523,
      "▁الآ": 524,
      "▁لي": 525,
      "▁حيث": 526,
      "▁عام": 527,
      "ــ": 528,
      "ثير": 529,
      "كي": 530,
      "an": 531,
      "▁مست": 532,
      "قر": 533,
      "سية": 534,
      "ينة": 535,
      "▁عند": 536,
      "دد": 537,
      "تى": 538,
      "جة": 539,
      "▁الز": 540,
      "▁ولا": 541,
      "فر": 542,
      "وان": 543,
      "▁وع": 544,
      "وقع": 545,
      "▁بر": 546,
      "ئة": 547,
      "▁بت": 548,
      "▁اليوم": 549,
      "▁با": 550,
      "ربية": 551,
      "▁يع": 552,
      "▁ول": 553,
      "خد": 554,
      "▁قبل": 555,
      "قط": 556,
      "ناء": 557,
      "▁بد": 558,
      "▁تص": 559,
      "امل": 560,
      "ميع": 561,
      "▁غير": 562,
      "▁عليه": 563,
      "▁الاست": 564,
      "زة": 565,
      "▁بل": 566,
      "▁وج": 567,
      "▁أس": 568,
      "▁تج": 569,
      "نع": 570,
      "وة": 571,
      "on": 572,
      "▁«": 573,
      "طي": 574,
      "▁الأس": 575,
      "▁الى": 576,
      "▁دا": 577,
      "فت": 578,
      "قات": 579,
      "▁المس": 580,
      "▁به": 581,
      "▁قال": 582,
      "▁ومن": 583,
      "▁حتى": 584,
      "بح": 585,
      "▁النا": 586,
      "▁المع": 587,
      "لام": 588,
      "▁وح": 589,
      "▁المص": 590,
      "▁مر": 591,
      "وك": 592,
      "▁بعض": 593,
      "▁هنا": 594,
      "ارك": 595,
      "▁تش": 596,
      "بن": 597,
      "▁عمل": 598,
      "ليم": 599,
      "▁يج": 600,
      "▁يق": 601,
      "َّ": 602,
      "▁بح": 603,
      "بت": 604,
      "از": 605,
      "صول": 606,
      "بيع": 607,
      "▁المد": 608,
      "فضل": 609,
      "لق": 610,
      "▁مج": 611,
      "▁العالم": 612,
      "▁وز": 613,
      "▁المر": 614,
      "▁وك": 615,
      "▁نا": 616,
      "▁أنه": 617,
      "ضا": 618,
      "صف": 619,
      "رد": 620,
      "قدم": 621,
      "حنة": 622,
      "▁ون": 623,
      "▁العمل": 624,
      "يت": 625,
      "لس": 626,
      "ارت": 627,
      "▁ست": 628,
      "▁وإ": 629,
      "طن": 630,
      "▁أب": 631,
      "خرى": 632,
      "▁أكثر": 633,
      "▁الدول": 634,
      "or": 635,
      "ومة": 636,
      "اصة": 637,
      "▁t": 638,
      "ابة": 639,
      "▁كب": 640,
      "سبة": 641,
      "بات": 642,
      "واق": 643,
      "حق": 644,
      "es": 645,
      "خدم": 646,
      "صة": 647,
      "▁ات": 648,
      "▁والأ": 649,
      "ar": 650,
      "▁عبد": 651,
      "▁ولك": 652,
      "▁أح": 653,
      "لات": 654,
      "▁إذا": 655,
      "له": 656,
      "▁مطحنة": 657,
      "رف": 658,
      "▁ثم": 659,
      "به": 660,
      "بية": 661,
      "يج": 662,
      "▁واح": 663,
      "▁لأ": 664,
      "▁وفي": 665,
      "▁تأ": 666,
      "▁يوم": 667,
      "غير": 668,
      "at": 669,
      "▁بأ": 670,
      "ظام": 671,
      "▁كانت": 672,
      "▁تر": 673,
      "خدام": 674,
      "▁للت": 675,
      "▁وهو": 676,
      "▁مؤ": 677,
      "طم": 678,
      "▁عم": 679,
      "دات": 680,
      "وعة": 681,
      "ديدة": 682,
      "سلام": 683,
      "ضع": 684,
      "▁A": 685,
      "كا": 686,
      "ظر": 687,
      "▁يكون": 688,
      "وار": 689,
      "امج": 690,
      "ضي": 691,
      "▁ولكن": 692,
      "al": 693,
      "راق": 694,
      "en": 695,
      "▁العام": 696,
      "عات": 697,
      "اط": 698,
      "فق": 699,
      "▁التع": 700,
      "تما": 701,
      "▁مثل": 702,
      "ديم": 703,
      "ثة": 704,
      "▁تس": 705,
      "▁يتم": 706,
      "َا": 707,
      "ختلف": 708,
      "▁لكن": 709,
      "ودة": 710,
      "بط": 711,
      "رات": 712,
      "▁؟": 713,
      "كية": 714,
      "▁المج": 715,
      "جلس": 716,
      "▁تط": 717,
      "▁مصر": 718,
      "▁التح": 719,
      "▁السيا": 720,
      "وني": 721,
      "▁محمد": 722,
      "▁مق": 723,
      "عار": 724,
      "ولا": 725,
      "الات": 726,
      "▁ام": 727,
      "▁الات": 728,
      "حا": 729,
      "قيق": 730,
      "هي": 731,
      "دى": 732,
      "▁بها": 733,
      "▁لأن": 734,
      "▁S": 735,
      "بع": 736,
      "▁الض": 737,
      "الت": 738,
      "▁بشكل": 739,
      "اريخ": 740,
      "▁رئيس": 741,
      "ركات": 742,
      "طقة": 743,
      "▁خط": 744,
      "ريد": 745,
      "▁البي": 746,
      "▁P": 747,
      "▁فإن": 748,
      "هل": 749,
      "▁وَ": 750,
      "عود": 751,
      "▁آلة": 752,
      "زل": 753,
      "نس": 754,
      "طف": 755,
      "▁تد": 756,
      "▁حول": 757,
      "▁الموا": 758,
      "▁بأن": 759,
      "يب": 760,
      "▁كت": 761,
      "سات": 762,
      "صد": 763,
      "رج": 764,
      "▁نفس": 765,
      "▁ظ": 766,
      "رن": 767,
      "ليل": 768,
      "حم": 769,
      "▁بالم": 770,
      "▁وقد": 771,
      "ارية": 772,
      "وال": 773,
      "َّ": 774,
      "▁جميع": 775,
      "▁–": 776,
      "▁المتح": 777,
      "يني": 778,
      "▁الرئيس": 779,
      "عرف": 780,
      "▁المق": 781,
      "ئي": 782,
      "▁فيها": 783,
      "▁المؤ": 784,
      "ارج": 785,
      "راج": 786,
      "▁هناك": 787,
      "داد": 788,
      "▁محطم": 789,
      "▁الحجر": 790,
      "▁الجم": 791,
      "ئية": 792,
      "▁أع": 793,
      "عمال": 794,
      "▁تست": 795,
      "لت": 796,
      "▁ين": 797,
      "▁البح": 798,
      "▁التج": 799,
      "ينا": 800,
      "▁تحت": 801,
      "جد": 802,
      "ورية": 803,
      "داء": 804,
      "▁M": 805,
      "ركز": 806,
      "وص": 807,
      "▁يست": 808,
      "▁شي": 809,
      "حية": 810,
      "شف": 811,
      "▁فيه": 812,
      "▁|": 813,
      "جتما": 814,
      "▁المنا": 815,
      "▁إلا": 816,
      "شة": 817,
      "▁حس": 818,
      "▁C": 819,
      "سبب": 820,
      "▁أحد": 821,
      "واء": 822,
      "ديث": 823,
      "▁العم": 824,
      "أس": 825,
      "ِي": 826,
      "وح": 827,
      "ائل": 828,
      "مت": 829,
      "▁العربية": 830,
      "طا": 831,
      "▁مخ": 832,
      "ومات": 833,
      "دث": 834,
      "▁“": 835,
      "▁أص": 836,
      "▁لك": 837,
      "قتص": 838,
      "لاء": 839,
      "▁دول": 840,
      "▁لها": 841,
      "▁انت": 842,
      "▁أخ": 843,
      "▁ور": 844,
      "▁لن": 845,
      "▁يح": 846,
      "▁عدد": 847,
      "ربي": 848,
      "▁p": 849,
      "▁طحن": 850,
      "...": 851,
      "افظ": 852,
      "▁المنت": 853,
      "▁سن": 854,
      "▁التن": 855,
      "▁شركة": 856,
      "▁إلي": 857,
      "▁الأخ": 858,
      "َل": 859,
      "يز": 860,
      "it": 861,
      "انون": 862,
      "لاح": 863,
      "▁»": 864,
      "ic": 865,
      "▁عبر": 866,
      "كة": 867,
      "يادة": 868,
      "ظم": 869,
      "زيد": 870,
      "\"\".": 871,
      "رياض": 872,
      "عرض": 873,
      "▁أش": 874,
      "▁الحك": 875,
      "▁يد": 876,
      "لاق": 877,
      "انة": 878,
      "طل": 879,
      "▁كيف": 880,
      "he": 881,
      "▁الوق": 882,
      "دارة": 883,
      "مو": 884,
      "هما": 885,
      "▁الأول": 886,
      "هب": 887,
      "▁تكون": 888,
      "▁موا": 889,
      "روع": 890,
      "▁وف": 891,
      "▁للبيع": 892,
      "▁بإ": 893,
      "▁والع": 894,
      "ضافة": 895,
      "▁قر": 896,
      "مال": 897,
      "▁s": 898,
      "شي": 899,
      "▁ملي": 900,
      "▁دون": 901,
      "▁بالت": 902,
      "▁الذين": 903,
      "َن": 904,
      "is": 905,
      "فل": 906,
      "ونة": 907,
      "جموعة": 908,
      "ماء": 909,
      "▁لإ": 910,
      "▁يش": 911,
      "انات": 912,
      "داول": 913,
      "ou": 914,
      "▁منذ": 915,
      "وير": 916,
      "▁وكان": 917,
      "▁المتحدة": 918,
      "مار": 919,
      "ضاف": 920,
      "كد": 921,
      "▁فقط": 922,
      "▁السي": 923,
      "ضر": 924,
      "▁دي": 925,
      "▁موقع": 926,
      "▁وقال": 927,
      "▁وهي": 928,
      "وه": 929,
      "اعة": 930,
      "▁T": 931,
      "جات": 932,
      "▁منت": 933,
      "ولي": 934,
      "عدين": 935,
      "▁c": 936,
      "▁القر": 937,
      "▁حق": 938,
      "ولى": 939,
      "الب": 940,
      "ابات": 941,
      "جن": 942,
      "▁بك": 943,
      "▁وش": 944,
      "غي": 945,
      "▁فر": 946,
      "اة": 947,
      "▁عليها": 948,
      "عودية": 949,
      "قم": 950,
      "سر": 951,
      "حو": 952,
      "ذي": 953,
      "▁[": 954,
      "لسط": 955,
      "▁يجب": 956,
      "▁آخر": 957,
      "▁رس": 958,
      "وط": 959,
      ".\"": 960,
      "▁الشي": 961,
      "ياة": 962,
      "شرة": 963,
      "▁تلك": 964,
      "▁أخرى": 965,
      "▁منها": 966,
      "▁..": 967,
      "بق": 968,
      "▁او": 969,
      "▁أف": 970,
      "▁قط": 971,
      "سرائ": 972,
      "راض": 973,
      "جي": 974,
      "قب": 975,
      "▁للأ": 976,
      "▁وأن": 977,
      "ريقة": 978,
      "الح": 979,
      "▁بع": 980,
      "راف": 981,
      "غة": 982,
      "ed": 983,
      "نى": 984,
      "رس": 985,
      "مان": 986,
      "▁أفضل": 987,
      "om": 988,
      "▁الوط": 989,
      "▁الوز": 990,
      "▁لح": 991,
      "عتبر": 992,
      "يفة": 993,
      "لاف": 994,
      "▁وذلك": 995,
      "▁m": 996,
      "واقع": 997,
      "▁أول": 998,
      "▁مصنع": 999,
      "▁والح": 1000,
      "وث": 1001,
      "▁المغ": 1002,
      "جز": 1003,
      "et": 1004,
      "▁فت": 1005,
      "▁الام": 1006,
      "اته": 1007,
      "علام": 1008,
      "أة": 1009,
      "غم": 1010,
      "قول": 1011,
      "لاث": 1012,
      "▁والتي": 1013,
      "▁الرا": 1014,
      "▁”": 1015,
      "عادة": 1016,
      "لاد": 1017,
      "▁السل": 1018,
      "▁اح": 1019,
      "فاع": 1020,
      "رت": 1021,
      "▁ليس": 1022,
      "ارس": 1023,
      "اس": 1024,
      "▁الدا": 1025,
      "▁شخص": 1026,
      "لاب": 1027,
      "▁الماض": 1028,
      "ينية": 1029,
      "يران": 1030,
      "▁جن": 1031,
      "قال": 1032,
      "▁الكرة": 1033,
      "ائر": 1034,
      "وائ": 1035,
      "هُ": 1036,
      "▁اخ": 1037,
      "▁الإسلام": 1038,
      "▁كبير": 1039,
      "ذكر": 1040,
      "ظيم": 1041,
      "ياء": 1042,
      "ادر": 1043,
      "as": 1044,
      "كثر": 1045,
      "▁للح": 1046,
      "▁المم": 1047,
      "▁!": 1048,
      "▁استخدام": 1049,
      "زم": 1050,
      "▁جم": 1051,
      "وظ": 1052,
      "قيقة": 1053,
      "انب": 1054,
      "فاق": 1055,
      "ودي": 1056,
      "▁الجز": 1057,
      "▁السعودية": 1058,
      "▁عملية": 1059,
      "▁/": 1060,
      "ادة": 1061,
      "▁ود": 1062,
      "رير": 1063,
      "ريم": 1064,
      "▁والإ": 1065,
      "▁وخ": 1066,
      "▁وان": 1067,
      "▁الذهب": 1068,
      "مية": 1069,
      "ِن": 1070,
      "▁ترك": 1071,
      "▁سعر": 1072,
      "قتصاد": 1073,
      "منت": 1074,
      "باب": 1075,
      "▁الوقت": 1076,
      "شار": 1077,
      "ريب": 1078,
      "▁عندما": 1079,
      "▁را": 1080,
      "جراء": 1081,
      "▁مما": 1082,
      "ساعد": 1083,
      "لية": 1084,
      "رح": 1085,
      "▁خام": 1086,
      "يش": 1087,
      "▁معدات": 1088,
      "▁الساب": 1089,
      "لاج": 1090,
      "ظهر": 1091,
      "يام": 1092,
      "▁نت": 1093,
      "هدف": 1094,
      "▁الإم": 1095,
      "لكة": 1096,
      "شت": 1097,
      "نتاج": 1098,
      "▁تف": 1099,
      "▁وما": 1100,
      "▁هل": 1101,
      "▁فقد": 1102,
      "تمع": 1103,
      "re": 1104,
      "▁الْ": 1105,
      "طار": 1106,
      "le": 1107,
      "▁الانت": 1108,
      "َي": 1109,
      "وضوع": 1110,
      "باد": 1111,
      "▁بط": 1112,
      "▁بما": 1113,
      "▁الآن": 1114,
      "▁المخ": 1115,
      "ميز": 1116,
      "▁لج": 1117,
      "بيق": 1118,
      "ضة": 1119,
      "قاء": 1120,
      "▁الناس": 1121,
      "▁أيضا": 1122,
      "▁سب": 1123,
      "وقف": 1124,
      "▁لدي": 1125,
      "انيا": 1126,
      "ing": 1127,
      "▁للا": 1128,
      "▁الاجتما": 1129,
      "كو": 1130,
      "الى": 1131,
      "▁بالإ": 1132,
      "▁المه": 1133,
      "ليات": 1134,
      "▁والا": 1135,
      "عمل": 1136,
      "ويل": 1137,
      "▁قائ": 1138,
      "▁طريق": 1139,
      "حاد": 1140,
      "راد": 1141,
      "▁أد": 1142,
      "روط": 1143,
      "ّة": 1144,
      "▁الأح": 1145,
      "برا": 1146,
      "▁عل": 1147,
      "▁الفك": 1148,
      "▁وقت": 1149,
      "▁a": 1150,
      "سن": 1151,
      "لد": 1152,
      "واصل": 1153,
      "اركة": 1154,
      "▁ذات": 1155,
      "اذ": 1156,
      "▁وص": 1157,
      "▁G": 1158,
      "▁مختلف": 1159,
      "▁مجلس": 1160,
      "طفال": 1161,
      "امعة": 1162,
      "مس": 1163,
      "▁الخاصة": 1164,
      "راك": 1165,
      "▁اعت": 1166,
      "▁والد": 1167,
      "▁مجموعة": 1168,
      "▁الكثير": 1169,
      "هاز": 1170,
      "▁العديد": 1171,
      "▁اس": 1172,
      "▁داخل": 1173,
      "▁يا": 1174,
      "ريف": 1175,
      "غط": 1176,
      "هور": 1177,
      "▁بق": 1178,
      "زب": 1179,
      "▁كنت": 1180,
      "يه": 1181,
      "▁B": 1182,
      "▁بسبب": 1183,
      "▁العامة": 1184,
      "▁واست": 1185,
      "نامج": 1186,
      "ربع": 1187,
      "▁يُ": 1188,
      "▁الهند": 1189,
      "▁ولي": 1190,
      "▁نق": 1191,
      "ضاء": 1192,
      "هة": 1193,
      "▁الأمري": 1194,
      "▁الإنس": 1195,
      "ورد": 1196,
      "وجد": 1197,
      "▁المط": 1198,
      "▁منه": 1199,
      "ميم": 1200,
      "رية": 1201,
      "باح": 1202,
      "▁الصين": 1203,
      "▁يس": 1204,
      "يار": 1205,
      "▁الدولة": 1206,
      "ion": 1207,
      "▁فه": 1208,
      "▁سيا": 1209,
      "▁حال": 1210,
      "▁التق": 1211,
      "▁بالن": 1212,
      "▁ارت": 1213,
      "▁d": 1214,
      "مين": 1215,
      "▁لو": 1216,
      "بدأ": 1217,
      "حلة": 1218,
      "واع": 1219,
      "غيرة": 1220,
      "▁الخط": 1221,
      "▁جديدة": 1222,
      "خب": 1223,
      "داً": 1224,
      "يك": 1225,
      "▁كبيرة": 1226,
      "ــــ": 1227,
      "▁اللا": 1228,
      "▁الجن": 1229,
      "زمة": 1230,
      "▁أنها": 1231,
      "▁أما": 1232,
      "جيل": 1233,
      "▁أمام": 1234,
      "ظمة": 1235,
      "طلب": 1236,
      "▁خاصة": 1237,
      "ياه": 1238,
      "▁تخ": 1239,
      "ميل": 1240,
      "خذ": 1241,
      "▁الكت": 1242,
      "يرا": 1243,
      "▁واحد": 1244,
      "▁الأمر": 1245,
      "▁الصح": 1246,
      "▁f": 1247,
      "ac": 1248,
      "▁أجل": 1249,
      "▁أهم": 1250,
      "عبة": 1251,
      "▁لد": 1252,
      "▁فيما": 1253,
      "تك": 1254,
      "▁مل": 1255,
      "▁والس": 1256,
      "\"\"،": 1257,
      "▁لما": 1258,
      "▁الرياض": 1259,
      "▁بس": 1260,
      "us": 1261,
      "روف": 1262,
      "▁وهذا": 1263,
      "زيز": 1264,
      "ro": 1265,
      "▁أث": 1266,
      "▁عدم": 1267,
      "هِ": 1268,
      "ضم": 1269,
      "▁الأن": 1270,
      "▁اي": 1271,
      "قبل": 1272,
      "ابع": 1273,
      "وفر": 1274,
      "▁حد": 1275,
      "▁الحكومة": 1276,
      "زا": 1277,
      "تين": 1278,
      "وبة": 1279,
      "ؤول": 1280,
      "بلغ": 1281,
      "▁D": 1282,
      "el": 1283,
      "▁الأولى": 1284,
      "▁مك": 1285,
      "▁سل": 1286,
      "▁سحق": 1287,
      "مْ": 1288,
      "ائية": 1289,
      "احة": 1290,
      "▁b": 1291,
      "ونا": 1292,
      "il": 1293,
      "▁ضد": 1294,
      "عيد": 1295,
      "كتب": 1296,
      "َر": 1297,
      "ربة": 1298,
      "▁حين": 1299,
      "▁الطبي": 1300,
      "▁العلم": 1301,
      "انا": 1302,
      "▁صف": 1303,
      "▁يمكنك": 1304,
      "▁ابن": 1305,
      "سرائيل": 1306,
      "▁الشر": 1307,
      "▁حل": 1308,
      "دمة": 1309,
      "▁F": 1310,
      "يري": 1311,
      "وء": 1312,
      "▁مدينة": 1313,
      "نين": 1314,
      "▁الاحت": 1315,
      "am": 1316,
      "ابل": 1317,
      "▁I": 1318,
      "زام": 1319,
      ").": 1320,
      "▁الثاني": 1321,
      "and": 1322,
      "شا": 1323,
      "▁ولم": 1324,
      "وما": 1325,
      "نان": 1326,
      "▁حالة": 1327,
      "▁وجود": 1328,
      "▁والن": 1329,
      "كتور": 1330,
      "▁الشركة": 1331,
      "▁H": 1332,
      "دمات": 1333,
      "سك": 1334,
      "الك": 1335,
      "طق": 1336,
      "▁دائ": 1337,
      "راسة": 1338,
      "لاً": 1339,
      "▁صح": 1340,
      "▁الولا": 1341,
      "▁بج": 1342,
      "رى": 1343,
      "▁نظام": 1344,
      "ياً": 1345,
      "▁اخت": 1346,
      "▁w": 1347,
      "يين": 1348,
      "▁التص": 1349,
      "▁باست": 1350,
      "ادي": 1351,
      "قاط": 1352,
      "▁o": 1353,
      "▁جديد": 1354,
      "▁R": 1355,
      "▁يؤ": 1356,
      "▁بص": 1357,
      "▁العراق": 1358,
      "▁تك": 1359,
      "▁وإن": 1360,
      "▁؛": 1361,
      "▁الرس": 1362,
      "دية": 1363,
      "فيذ": 1364,
      "▁الأمن": 1365,
      "الف": 1366,
      "▁نوع": 1367,
      "▁احت": 1368,
      "▁the": 1369,
      "▁برنامج": 1370,
      "بير": 1371,
      "▁الخارج": 1372,
      "▁وغير": 1373,
      "ساء": 1374,
      "▁كثير": 1375,
      "▁L": 1376,
      "▁وط": 1377,
      "ناعة": 1378,
      "عام": 1379,
      "▁سنة": 1380,
      "▁الأش": 1381,
      "▁واحدة": 1382,
      "▁منا": 1383,
      "وريا": 1384,
      "عاون": 1385,
      "▁الفت": 1386,
      "▁الصف": 1387,
      "سط": 1388,
      "▁التط": 1389,
      "كرة": 1390,
      "▁الشخص": 1391,
      "ئا": 1392,
      "▁الوا": 1393,
      "▁الشعب": 1394,
      "صال": 1395,
      "▁وسلم": 1396,
      "سين": 1397,
      "وسط": 1398,
      "▁وزارة": 1399,
      "▁البر": 1400,
      "▁أيض": 1401,
      "ad": 1402,
      "صيل": 1403,
      "▁فع": 1404,
      "▁ري": 1405,
      "▁أق": 1406,
      "▁جز": 1407,
      "حات": 1408,
      "▁E": 1409,
      "َيْ": 1410,
      "▁الرو": 1411,
      "▁الفلسط": 1412,
      "▁دولار": 1413,
      "▁العربي": 1414,
      "يارات": 1415,
      "▁مليون": 1416,
      "املة": 1417,
      "▁شيء": 1418,
      "▁الماضي": 1419,
      "صح": 1420,
      "▁الخاص": 1421,
      "▁القط": 1422,
      "▁اب": 1423,
      "▁تاريخ": 1424,
      "همة": 1425,
      "▁قام": 1426,
      "هاب": 1427,
      "واب": 1428,
      "▁h": 1429,
      "ائف": 1430,
      "▁وضع": 1431,
      "حدث": 1432,
      "سان": 1433,
      "▁السعر": 1434,
      "غل": 1435,
      "▁دور": 1436,
      "▁العق": 1437,
      "▁نحو": 1438,
      "فظ": 1439,
      "▁صلى": 1440,
      "▁الملك": 1441,
      "طلاق": 1442,
      "ائق": 1443,
      "لكتر": 1444,
      "▁نها": 1445,
      "جب": 1446,
      "جهة": 1447,
      "▁الحر": 1448,
      "طات": 1449,
      "ديو": 1450,
      "افظة": 1451,
      "عى": 1452,
      "بحث": 1453,
      "جمع": 1454,
      "▁وزير": 1455,
      "▁مرة": 1456,
      "▁التعدين": 1457,
      "▁منطقة": 1458,
      "▁شا": 1459,
      "▁يقول": 1460,
      "▁مم": 1461,
      "▁البحث": 1462,
      "▁عنه": 1463,
      "▁المملكة": 1464,
      "▁يف": 1465,
      "▁يحت": 1466,
      "وركس": 1467,
      "▁عرض": 1468,
      "ويت": 1469,
      "▁در": 1470,
      "بيل": 1471,
      "جهزة": 1472,
      "رفة": 1473,
      "▁النظام": 1474,
      "▁التد": 1475,
      "▁مبا": 1476,
      "▁مو": 1477,
      "▁مكان": 1478,
      "▁التس": 1479,
      "ولوج": 1480,
      "فاء": 1481,
      "▁مي": 1482,
      "حل": 1483,
      "غا": 1484,
      "▁كم": 1485,
      "▁المعل": 1486,
      "صي": 1487,
      "▁المنطقة": 1488,
      "▁نج": 1489,
      "طيع": 1490,
      "َة": 1491,
      "الد": 1492,
      "▁ومع": 1493,
      "انت": 1494,
      "▁المصر": 1495,
      "عدة": 1496,
      "▁الحديد": 1497,
      "▁جي": 1498,
      "شاء": 1499,
      "▁جدا": 1500,
      "▁لهم": 1501,
      "هرب": 1502,
      "▁أكبر": 1503,
      "َب": 1504,
      "▁نظ": 1505,
      "خول": 1506,
      "ابعة": 1507,
      "▁حجر": 1508,
      "▁الشيخ": 1509,
      "▁والش": 1510,
      "▁أغ": 1511,
      "▁علم": 1512,
      "▁سوف": 1513,
      "ناول": 1514,
      "وبي": 1515,
      "▁وعلى": 1516,
      "اما": 1517,
      "خرج": 1518,
      "ونية": 1519,
      "▁وظ": 1520,
      "▁ذكر": 1521,
      "▁أحمد": 1522,
      "ِّ": 1523,
      "▁الحق": 1524,
      "قاف": 1525,
      "▁عالية": 1526,
      "▁الأرض": 1527,
      "راتيج": 1528,
      "يمة": 1529,
      "ده": 1530,
      "اتف": 1531,
      "▁الحصول": 1532,
      "▁الحياة": 1533,
      "يع": 1534,
      "▁ضمن": 1535,
      "▁ار": 1536,
      "▁الجديد": 1537,
      "▁كتاب": 1538,
      "▁*": 1539,
      "▁فأ": 1540,
      "▁التعليم": 1541,
      "▁التأ": 1542,
      "▁#": 1543,
      "جا": 1544,
      "▁الجديدة": 1545,
      "باراة": 1546,
      "▁لكل": 1547,
      "▁إذ": 1548,
      "ابت": 1549,
      "▁مه": 1550,
      "▁أبو": 1551,
      "▁الظ": 1552,
      "▁بيع": 1553,
      "▁لش": 1554,
      "سبوع": 1555,
      "َع": 1556,
      "ساس": 1557,
      "▁مث": 1558,
      "▁تعالى": 1559,
      "اهرة": 1560,
      "▁مب": 1561,
      "▁فا": 1562,
      "▁للإ": 1563,
      "▁فال": 1564,
      "▁وتح": 1565,
      "وجه": 1566,
      "يط": 1567,
      "▁النف": 1568,
      "▁يص": 1569,
      "▁تو": 1570,
      "داف": 1571,
      "غيير": 1572,
      "ent": 1573,
      "▁المعد": 1574,
      "كمة": 1575,
      "▁عمر": 1576,
      "▁نشر": 1577,
      "لمين": 1578,
      "▁اف": 1579,
      "▁الوطني": 1580,
      "▁W": 1581,
      "▁عبدال": 1582,
      "ريط": 1583,
      "دت": 1584,
      "▁شهر": 1585,
      "▁رم": 1586,
      "▁الإنسان": 1587,
      "▁بدا": 1588,
      "ضح": 1589,
      "▁بالأ": 1590,
      "▁اللي": 1591,
      "▁الدين": 1592,
      "▁نفسه": 1593,
      "لع": 1594,
      "أت": 1595,
      "علن": 1596,
      ")،": 1597,
      "▁ها": 1598,
      "▁مستوى": 1599,
      "ol": 1600,
      "تيار": 1601,
      "▁للش": 1602,
      "▁السلام": 1603,
      "▁الولايات": 1604,
      "ارب": 1605,
      "▁مشروع": 1606,
      "▁جاء": 1607,
      "▁العل": 1608,
      "سكر": 1609,
      "▁الاس": 1610,
      "▁شر": 1611,
      "▁التش": 1612,
      "▁القانون": 1613,
      "جاج": 1614,
      "هود": 1615,
      "▁نف": 1616,
      "▁تقدم": 1617,
      "▁الدكتور": 1618,
      "▁وأضاف": 1619,
      "زال": 1620,
      "باء": 1621,
      "وبا": 1622,
      "لاثة": 1623,
      "▁لذلك": 1624,
      "اعات": 1625,
      "▁إدارة": 1626,
      "خي": 1627,
      "▁رقم": 1628,
      "▁ير": 1629,
      "▁الرئيسية": 1630,
      "▁الدولي": 1631,
      "صار": 1632,
      "▁سنوات": 1633,
      "عداد": 1634,
      "هتم": 1635,
      "▁عشر": 1636,
      "صوص": 1637,
      "خاص": 1638,
      "▁وسي": 1639,
      "▁الاقتصاد": 1640,
      "َم": 1641,
      "▁التى": 1642,
      "ot": 1643,
      "َو": 1644,
      "▁اليمن": 1645,
      "اتب": 1646,
      "▁in": 1647,
      "▁لتح": 1648,
      "▁أبي": 1649,
      "داث": 1650,
      "هن": 1651,
      "▁البن": 1652,
      "اتها": 1653,
      "▁حم": 1654,
      "ريقيا": 1655,
      "▁المو": 1656,
      "▁الأمير": 1657,
      "روس": 1658,
      "علق": 1659,
      "▁الاتحاد": 1660,
      "▁مركز": 1661,
      "يو": 1662,
      "▁الشركات": 1663,
      "▁لدى": 1664,
      "▁جنوب": 1665,
      "قلة": 1666,
      "▁اسم": 1667,
      "ab": 1668,
      "جال": 1669,
      "▁والص": 1670,
      "ماية": 1671,
      "▁والف": 1672,
      "طاء": 1673,
      "دل": 1674,
      "ذهب": 1675,
      "لاقة": 1676,
      "▁المجتمع": 1677,
      "آن": 1678,
      "▁رب": 1679,
      "ائج": 1680,
      "وبر": 1681,
      "▁والذي": 1682,
      "▁l": 1683,
      "▁ألف": 1684,
      "ضية": 1685,
      "▁المصري": 1686,
      "▁رأ": 1687,
      "▁المزيد": 1688,
      "▁تب": 1689,
      "▁مجال": 1690,
      "نتر": 1691,
      "اقة": 1692,
      "id": 1693,
      "عضاء": 1694,
      "▁فريق": 1695,
      "▁وجه": 1696,
      "▁الأخرى": 1697,
      "▁الإن": 1698,
      "__": 1699,
      "َد": 1700,
      "▁محا": 1701,
      "نيع": 1702,
      "كار": 1703,
      "▁متر": 1704,
      "▁الفحم": 1705,
      "▁حساب": 1706,
      "▁نس": 1707,
      "▁بوا": 1708,
      "▁الأد": 1709,
      "حيح": 1710,
      "كلة": 1711,
      "▁كيفية": 1712,
      "▁طلب": 1713,
      "▁of": 1714,
      "تهم": 1715,
      "▁جد": 1716,
      "▁أنا": 1717,
      "▁نقل": 1718,
      "عودي": 1719,
      "▁المالية": 1720,
      "غيل": 1721,
      "▁الموقع": 1722,
      "▁بناء": 1723,
      "راب": 1724,
      "ضمن": 1725,
      "▁N": 1726,
      "▁الترك": 1727,
      "▁البلد": 1728,
      "▁تستخدم": 1729,
      "انع": 1730,
      "▁شركات": 1731,
      "▁صور": 1732,
      "ثم": 1733,
      "▁الحل": 1734,
      "▁فل": 1735,
      "احونة": 1736,
      "▁حر": 1737,
      "▁الأع": 1738,
      "ومية": 1739,
      "▁والق": 1740,
      "ائي": 1741,
      "ec": 1742,
      "▁الثلاث": 1743,
      "ديل": 1744,
      "▁الساعة": 1745,
      "▁سم": 1746,
      "▁للع": 1747,
      "▁مدير": 1748,
      "▁لق": 1749,
      "وله": 1750,
      "اجة": 1751,
      "ينات": 1752,
      "▁الإلكتر": 1753,
      "ويات": 1754,
      "لاة": 1755,
      "يلي": 1756,
      "▁تطبيق": 1757,
      "ow": 1758,
      "▁دولة": 1759,
      "الث": 1760,
      "علان": 1761,
      "▁أج": 1762,
      "تمر": 1763,
      "▁القد": 1764,
      "▁فلا": 1765,
      "طان": 1766,
      "▁حسب": 1767,
      "▁معل": 1768,
      "بكة": 1769,
      "▁بالإضافة": 1770,
      "ومي": 1771,
      "هداف": 1772,
      "وفير": 1773,
      "▁يأ": 1774,
      "▁الآخر": 1775,
      "حب": 1776,
      "▁الشرق": 1777,
      "صب": 1778,
      "▁طريقة": 1779,
      "▁انه": 1780,
      "▁وتع": 1781,
      "ورا": 1782,
      "▁طبي": 1783,
      "سيق": 1784,
      "▁الفوركس": 1785,
      "▁·": 1786,
      "▁السابق": 1787,
      "▁يقوم": 1788,
      "▁عالم": 1789,
      "امي": 1790,
      "▁العالمية": 1791,
      "اهر": 1792,
      "▁تل": 1793,
      "▁لبن": 1794,
      "▁حك": 1795,
      "خة": 1796,
      "▁بكل": 1797,
      "▁الفر": 1798,
      "▁نحن": 1799,
      "ثنين": 1800,
      "َال": 1801,
      "خصص": 1802,
      "نف": 1803,
      "▁نش": 1804,
      "سباب": 1805,
      "جار": 1806,
      "▁للد": 1807,
      "▁مُ": 1808,
      "▁السوق": 1809,
      "▁المعلومات": 1810,
      "▁ني": 1811,
      "▁كسارات": 1812,
      "▁كافة": 1813,
      "▁المركز": 1814,
      "▁رائ": 1815,
      "▁عدة": 1816,
      "▁سا": 1817,
      "راءة": 1818,
      "▁عق": 1819,
      "▁لس": 1820,
      "▁السن": 1821,
      "▁الدولية": 1822,
      "ولات": 1823,
      "▁يعني": 1824,
      "وتر": 1825,
      "▁مف": 1826,
      "▁الشع": 1827,
      "▁الخام": 1828,
      "ِل": 1829,
      "▁and": 1830,
      "طلق": 1831,
      "▁تقديم": 1832,
      "جراءات": 1833,
      "ستر": 1834,
      "▁لقد": 1835,
      "▁بالنسبة": 1836,
      "▁إم": 1837,
      "سلسل": 1838,
      "▁الإعلام": 1839,
      "جاه": 1840,
      "صور": 1841,
      "▁الوطنية": 1842,
      "عيش": 1843,
      "وضع": 1844,
      "▁أمر": 1845,
      "ur": 1846,
      "▁وعد": 1847,
      "▁عب": 1848,
      "هات": 1849,
      "تيجة": 1850,
      "▁التداول": 1851,
      "▁أسعار": 1852,
      "▁الشا": 1853,
      "ثمار": 1854,
      "▁أثناء": 1855,
      "▁الأمريكية": 1856,
      "▁والخ": 1857,
      "▁قدم": 1858,
      "▁إليه": 1859,
      "▁مخروط": 1860,
      "ْت": 1861,
      "واج": 1862,
      "احن": 1863,
      "نائية": 1864,
      "oo": 1865,
      "▁المحم": 1866,
      "▁المال": 1867,
      "▁%": 1868,
      "فاصيل": 1869,
      "▁التاريخ": 1870,
      "▁تحقيق": 1871,
      "▁فتح": 1872,
      "▁تقوم": 1873,
      "▁اللج": 1874,
      "نترنت": 1875,
      "صابة": 1876,
      "▁المدينة": 1877,
      "ag": 1878,
      "st": 1879,
      "▁العرب": 1880,
      "سسة": 1881,
      "لاقات": 1882,
      "▁الار": 1883,
      "رين": 1884,
      "▁الحد": 1885,
      "▁لنا": 1886,
      "باط": 1887,
      "قص": 1888,
      "فين": 1889,
      "▁هم": 1890,
      "▁الداخل": 1891,
      "▁ينا": 1892,
      "▁إنتاج": 1893,
      "▁توا": 1894,
      "خابات": 1895,
      "كلفة": 1896,
      "▁البلاد": 1897,
      "ماد": 1898,
      "▁طاحونة": 1899,
      "▁جانب": 1900,
      "▁فيلم": 1901,
      "▁المواطن": 1902,
      "▁عد": 1903,
      "▁الدم": 1904,
      "َى": 1905,
      "سسات": 1906,
      "▁بلا": 1907,
      "▁الأف": 1908,
      "▁الفريق": 1909,
      "▁خارج": 1910,
      "▁وكذلك": 1911,
      "▁السياسية": 1912,
      "▁تؤ": 1913,
      "▁متن": 1914,
      "▁أنواع": 1915,
      "تل": 1916,
      "▁رؤ": 1917,
      "احب": 1918,
      "والي": 1919,
      "▁فض": 1920,
      "▁تحميل": 1921,
      "▁قدر": 1922,
      "▁إنه": 1923,
      "▁الاخ": 1924,
      "▁بو": 1925,
      "▁صغيرة": 1926,
      "▁الاعت": 1927,
      "قرار": 1928,
      "ساسية": 1929,
      "▁أل": 1930,
      "▁الثانية": 1931,
      "▁الإمارات": 1932,
      "▁لف": 1933,
      "الجة": 1934,
      "ذية": 1935,
      "حاب": 1936,
      "ذر": 1937,
      "علم": 1938,
      "▁تعمل": 1939,
      "▁الأور": 1940,
      "ساب": 1941,
      "راع": 1942,
      "▁الأعمال": 1943,
      "▁بف": 1944,
      "وضح": 1945,
      "▁مز": 1946,
      "▁O": 1947,
      "ارع": 1948,
      "▁وليس": 1949,
      "▁يخ": 1950,
      "▁سواء": 1951,
      "ْن": 1952,
      "▁الصنا": 1953,
      "▁الخارجية": 1954,
      "ظيف": 1955,
      "انه": 1956,
      "▁زوج": 1957,
      "جاز": 1958,
      "▁الكس": 1959,
      "لسلة": 1960,
      "▁طن": 1961,
      "▁قص": 1962,
      "▁يعمل": 1963,
      "▁المث": 1964,
      "▁المجلس": 1965,
      "▁عليك": 1966,
      "▁سر": 1967,
      "طية": 1968,
      "▁السود": 1969,
      "▁مض": 1970,
      "تمد": 1971,
      "وبية": 1972,
      "▁الفي": 1973,
      "▁يوجد": 1974,
      "زية": 1975,
      "▁خدمة": 1976,
      "غب": 1977,
      "جلي": 1978,
      "فاظ": 1979,
      "▁تداول": 1980,
      "▁ويت": 1981,
      "▁ويم": 1982,
      "ستان": 1983,
      "ناة": 1984,
      "ay": 1985,
      "خور": 1986,
      "روج": 1987,
      "▁قائمة": 1988,
      "▁المواد": 1989,
      "حص": 1990,
      "▁أيام": 1991,
      "▁وث": 1992,
      "▁وبعد": 1993,
      "▁ماك": 1994,
      "قه": 1995,
      "▁فهو": 1996,
      "▁{": 1997,
      "كال": 1998,
      "فات": 1999,
      "ميس": 2000,
      "َنْ": 2001,
      "▁الموضوع": 2002,
      "▁أر": 2003,
      "▁منهم": 2004,
      "▁الشباب": 2005,
      "▁تُ": 2006,
      "▁سوريا": 2007,
      "▁فترة": 2008,
      "▁g": 2009,
      "كنولوج": 2010,
      "ئات": 2011,
      "▁بِ": 2012,
      "عه": 2013,
      "ذج": 2014,
      "▁الحم": 2015,
      "ورات": 2016,
      "▁وض": 2017,
      "ئب": 2018,
      "▁بدون": 2019,
      "ظة": 2020,
      "َت": 2021,
      "قق": 2022,
      "▁بار": 2023,
      "▁كور": 2024,
      "▁أعمال": 2025,
      "▁المصرية": 2026,
      "قرا": 2027,
      "▁لمن": 2028,
      "▁بينما": 2029,
      "▁ساعة": 2030,
      "▁أهل": 2031,
      "زن": 2032,
      "بدو": 2033,
      "▁نهاية": 2034,
      "▁واس": 2035,
      "تنا": 2036,
      "▁تأثير": 2037,
      "دق": 2038,
      "ضور": 2039,
      "روض": 2040,
      "▁عنها": 2041,
      "خدمة": 2042,
      "▁إد": 2043,
      "ساعدة": 2044,
      "▁الفرن": 2045,
      "▁المرأة": 2046,
      "▁مختلفة": 2047,
      "شل": 2048,
      "ri": 2049,
      "un": 2050,
      "▁حا": 2051,
      "▁صنع": 2052,
      "رم": 2053,
      "▁دع": 2054,
      "▁الموج": 2055,
      "هيم": 2056,
      "▁لب": 2057,
      "عاد": 2058,
      "▁جني": 2059,
      "▁كث": 2060,
      "▁لص": 2061,
      "▁ليست": 2062,
      "▁الهي": 2063,
      "▁ساب": 2064,
      "▁الجيش": 2065,
      "المي": 2066,
      "▁والث": 2067,
      "ْم": 2068,
      "▁رسول": 2069,
      "▁للن": 2070,
      "قيم": 2071,
      "كيل": 2072,
      "▁عض": 2073,
      "▁الشعر": 2074,
      "مرار": 2075,
      "▁to": 2076,
      "▁الحديث": 2077,
      "▁قرار": 2078,
      "راً": 2079,
      "▁والج": 2080,
      "▁ينت": 2081,
      "شن": 2082,
      "سكرية": 2083,
      "َق": 2084,
      "▁يكن": 2085,
      "em": 2086,
      "ريح": 2087,
      "هير": 2088,
      "▁مِن": 2089,
      "▁العد": 2090,
      "▁تغ": 2091,
      "▁التواصل": 2092,
      "▁وآ": 2093,
      "▁بغ": 2094,
      "▁جعل": 2095,
      "▁روا": 2096,
      "▁قانون": 2097,
      "▁زيادة": 2098,
      "▁الخلي": 2099,
      "▁'": 2100,
      "▁مشا": 2101,
      "كات": 2102,
      "▁لع": 2103,
      "▁الأخيرة": 2104,
      "▁لاست": 2105,
      "▁الحي": 2106,
      "▁خاص": 2107,
      "لمان": 2108,
      "سلحة": 2109,
      "▁بخ": 2110,
      "شد": 2111,
      "▁أت": 2112,
      "▁أور": 2113,
      "▁عقد": 2114,
      "▁للس": 2115,
      "▁السياسي": 2116,
      "▁السوري": 2117,
      "▁جهاز": 2118,
      "ليا": 2119,
      "بال": 2120,
      "▁سلسلة": 2121,
      "كَ": 2122,
      "▁للج": 2123,
      "▁حدث": 2124,
      "اهدة": 2125,
      "▁الإنترنت": 2126,
      "▁الفترة": 2127,
      "▁لمدة": 2128,
      "▁لبنان": 2129,
      "▁نص": 2130,
      "▁ثلاث": 2131,
      "▁حديث": 2132,
      "هار": 2133,
      "▁مساء": 2134,
      "ونس": 2135,
      "ديات": 2136,
      "▁n": 2137,
      "▁إضافة": 2138,
      "▁المحت": 2139,
      "غر": 2140,
      "ؤال": 2141,
      "▁القاد": 2142,
      "▁مقابل": 2143,
      "▁تصميم": 2144,
      "قافة": 2145,
      "داع": 2146,
      "im": 2147,
      "ْل": 2148,
      "▁للق": 2149,
      "▁بالح": 2150,
      "اث": 2151,
      "▁إل": 2152,
      "ch": 2153,
      "▁رأس": 2154,
      "▁الرح": 2155,
      "سام": 2156,
      "ناصر": 2157,
      "عين": 2158,
      "▁فعل": 2159,
      "▁يك": 2160,
      "▁أمس": 2161,
      "▁الإر": 2162,
      "▁وكل": 2163,
      "ادات": 2164,
      "لائ": 2165,
      "▁ته": 2166,
      "▁وصل": 2167,
      "▁لهذا": 2168,
      "▁الاجتماعي": 2169,
      "▁الأطفال": 2170,
      "▁لكم": 2171,
      "▁الحرب": 2172,
      "ثار": 2173,
      "جرد": 2174,
      "▁المل": 2175,
      "▁السعودي": 2176,
      "▁جامعة": 2177,
      "▁شراء": 2178,
      "▁التجارية": 2179,
      "▁النها": 2180,
      "عتقد": 2181,
      "▁بالف": 2182,
      "▁شكل": 2183,
      "▁حجم": 2184,
      "▁الطاقة": 2185,
      "▁أيضًا": 2186,
      "ابية": 2187,
      "ريل": 2188,
      "جان": 2189,
      "▁تتم": 2190,
      "هورية": 2191,
      "▁لان": 2192,
      "▁موج": 2193,
      "▁شك": 2194,
      "▁المختلف": 2195,
      "▁معا": 2196,
      "▁إق": 2197,
      "▁رد": 2198,
      "▁هد": 2199,
      "ter": 2200,
      "▁دعم": 2201,
      "صلاح": 2202,
      "▁الوزراء": 2203,
      "....": 2204,
      "▁كون": 2205,
      "▁الأط": 2206,
      "▁تنت": 2207,
      "▁والك": 2208,
      "ذب": 2209,
      "▁وين": 2210,
      "▁يتح": 2211,
      "▁اش": 2212,
      "▁فن": 2213,
      "▁والاست": 2214,
      "اريع": 2215,
      "ْر": 2216,
      "▁كذلك": 2217,
      "▁نسبة": 2218,
      "▁مباشرة": 2219,
      "▁صناعة": 2220,
      "▁والب": 2221,
      "▁الجمعة": 2222,
      "▁نتيجة": 2223,
      "▁القائ": 2224,
      "▁وكانت": 2225,
      "▁موضوع": 2226,
      "▁إي": 2227,
      "درسة": 2228,
      "فية": 2229,
      "▁ثلاثة": 2230,
      "▁محم": 2231,
      "لاك": 2232,
      "زين": 2233,
      "▁محطة": 2234,
      "▁اجتما": 2235,
      "▁حقوق": 2236,
      "▁النبي": 2237,
      "▁الفلسطيني": 2238,
      "▁السيد": 2239,
      "كسير": 2240,
      "ir": 2241,
      "▁التف": 2242,
      "▁الإسلامية": 2243,
      "▁البط": 2244,
      "قية": 2245,
      "بول": 2246,
      "▁القرآن": 2247,
      "▁فوق": 2248,
      "▁مغ": 2249,
      "ابي": 2250,
      "ماع": 2251,
      "شرين": 2252,
      "▁المياه": 2253,
      "▁آلات": 2254,
      "ؤلاء": 2255,
      "▁الصحة": 2256,
      "دين": 2257,
      "▁الزي": 2258,
      "ation": 2259,
      "▁يعد": 2260,
      "أل": 2261,
      "قدمة": 2262,
      "نب": 2263,
      "▁الكهرب": 2264,
      "حدى": 2265,
      "▁وتم": 2266,
      "▁المنزل": 2267,
      "حوق": 2268,
      "اليا": 2269,
      "▁بب": 2270,
      "▁تصنيع": 2271,
      "▁وفق": 2272,
      "▁أقل": 2273,
      "▁مرا": 2274,
      "ضان": 2275,
      "▁للف": 2276,
      "▁المشت": 2277,
      "▁بات": 2278,
      "▁الأربع": 2279,
      "جرة": 2280,
      "كتوبر": 2281,
      "▁J": 2282,
      "▁تعرف": 2283,
      "بيا": 2284,
      "▁زي": 2285,
      "▁لأنه": 2286,
      "▁قطع": 2287,
      "كُ": 2288,
      "اجر": 2289,
      "خلص": 2290,
      "راتيجية": 2291,
      "▁التر": 2292,
      "▁الشم": 2293,
      "طرة": 2294,
      "▁سوق": 2295,
      "▁الخيارات": 2296,
      "▁وتن": 2297,
      "▁مرت": 2298,
      "قتصادي": 2299,
      "▁ظل": 2300,
      "▁المختلفة": 2301,
      "بقى": 2302,
      "▁إعادة": 2303,
      "▁إسرائيل": 2304,
      "▁المف": 2305,
      "▁واج": 2306,
      "تا": 2307,
      "ذة": 2308,
      "▁أمري": 2309,
      "لمات": 2310,
      "راجع": 2311,
      "▁باب": 2312,
      "▁باستخدام": 2313,
      "▁U": 2314,
      "▁وتق": 2315,
      "ريات": 2316,
      "▁درجة": 2317,
      "▁طب": 2318,
      "▁الدرا": 2319,
      "ليف": 2320,
      "▁الكتاب": 2321,
      "▁القدم": 2322,
      "▁بلغ": 2323,
      "▁فلسط": 2324,
      "كام": 2325,
      "▁الخميس": 2326,
      "▁وبين": 2327,
      "عرفة": 2328,
      "ويلة": 2329,
      "--": 2330,
      "زيل": 2331,
      "▁دين": 2332,
      "لبية": 2333,
      "▁المسلمين": 2334,
      "▁تناول": 2335,
      "▁بداية": 2336,
      "اك": 2337,
      "▁رغم": 2338,
      "ونيو": 2339,
      "هتمام": 2340,
      "جارة": 2341,
      "ذك": 2342,
      "حين": 2343,
      "▁المك": 2344,
      "▁قوات": 2345,
      "▁إس": 2346,
      "شق": 2347,
      "▁الداخلية": 2348,
      "▁الخدمات": 2349,
      "▁ـ": 2350,
      "▁ملف": 2351,
      "ut": 2352,
      "برز": 2353,
      "ليق": 2354,
      "تع": 2355,
      "▁المشاركة": 2356,
      "عاية": 2357,
      "▁صباح": 2358,
      "ub": 2359,
      "▁قم": 2360,
      "com": 2361,
      "▁إش": 2362,
      "▁جزء": 2363,
      "سطة": 2364,
      "يرات": 2365,
      "▁أنت": 2366,
      "▁بيان": 2367,
      "▁صاحب": 2368,
      "▁معلومات": 2369,
      "▁اللبن": 2370,
      "نيا": 2371,
      "▁قل": 2372,
      "▁تنظيم": 2373,
      "▁بالق": 2374,
      "▁أفريقيا": 2375,
      "▁كتب": 2376,
      "ia": 2377,
      "ُّ": 2378,
      "▁المز": 2379,
      "▁مواقع": 2380,
      "كبر": 2381,
      "▁فِي": 2382,
      "ul": 2383,
      "▁تنفيذ": 2384,
      "▁دم": 2385,
      "قاً": 2386,
      "▁الجزائر": 2387,
      "▁اع": 2388,
      "▁بشأن": 2389,
      "▁فقال": 2390,
      "لابس": 2391,
      "▁اللجنة": 2392,
      "▁الصخور": 2393,
      "ig": 2394,
      "▁V": 2395,
      "▁خدمات": 2396,
      "اتي": 2397,
      "▁وسط": 2398,
      "▁تركيا": 2399,
      "▁البشر": 2400,
      "▁يعتبر": 2401,
      "▁الثلاثاء": 2402,
      "▁لله": 2403,
      "سمية": 2404,
      "▁كلمة": 2405,
      "ديمقرا": 2406,
      "▁نظر": 2407,
      "▁بالع": 2408,
      "▁الأرد": 2409,
      "▁نمو": 2410,
      "▁كال": 2411,
      "▁باسم": 2412,
      "وغ": 2413,
      "▁حب": 2414,
      "▁صورة": 2415,
      "▁معظم": 2416,
      "َهُ": 2417,
      "▁حسن": 2418,
      "ناك": 2419,
      "▁الماء": 2420,
      "شرات": 2421,
      "كنولوجيا": 2422,
      "▁الرب": 2423,
      "▁السف": 2424,
      "وام": 2425,
      "جع": 2426,
      "▁ويمكن": 2427,
      "وفي": 2428,
      "▁عليهم": 2429,
      "▁عمليات": 2430,
      "ثي": 2431,
      "سرائيلي": 2432,
      "▁القاهرة": 2433,
      "سكري": 2434,
      "▁مليار": 2435,
      "▁البرن": 2436,
      "جوم": 2437,
      "▁يعرف": 2438,
      "▁حزب": 2439,
      "تز": 2440,
      "▁والر": 2441,
      "ائدة": 2442,
      "▁أعلى": 2443,
      "▁أشهر": 2444,
      "▁الوح": 2445,
      "قدر": 2446,
      "▁كي": 2447,
      "▁سبيل": 2448,
      "▁تعد": 2449,
      "▁البرنامج": 2450,
      "ريع": 2451,
      "▁الكويت": 2452,
      "اند": 2453,
      "▁وغيرها": 2454,
      "▁يل": 2455,
      "▁وات": 2456,
      "▁الغذا": 2457,
      "▁عَل": 2458,
      "ادية": 2459,
      "اصمة": 2460,
      "▁وتت": 2461,
      "▁دائما": 2462,
      "فاض": 2463,
      "ضايا": 2464,
      "▁شعب": 2465,
      "خفض": 2466,
      "▁قطاع": 2467,
      "▁اد": 2468,
      "▁حركة": 2469,
      "امب": 2470,
      "▁كن": 2471,
      "▁الجما": 2472,
      "▁الوطن": 2473,
      "ريدة": 2474,
      "▁اق": 2475,
      "▁النظر": 2476,
      "▁اختيار": 2477,
      "▁تطوير": 2478,
      "ساسي": 2479,
      "جموع": 2480,
      "▁ألم": 2481,
      "▁وأكد": 2482,
      "▁المب": 2483,
      "▁أنّ": 2484,
      "▁إليها": 2485,
      "وين": 2486,
      "▁وتش": 2487,
      "▁وحد": 2488,
      "▁اللاعب": 2489,
      "▁دبي": 2490,
      "صبح": 2491,
      "▁بالك": 2492,
      "طب": 2493,
      "▁أكد": 2494,
      "▁v": 2495,
      "▁الأمريكي": 2496,
      "▁مسؤول": 2497,
      "▁وبالت": 2498,
      "فسير": 2499,
      "▁الواقع": 2500,
      "▁ضر": 2501,
      "قرأ": 2502,
      "▁المشروع": 2503,
      "▁الخب": 2504,
      "ؤون": 2505,
      "▁أَ": 2506,
      "هاد": 2507,
      "▁الشه": 2508,
      "ناه": 2509,
      "بيوتر": 2510,
      "كيد": 2511,
      "▁المقا": 2512,
      "▁إيران": 2513,
      "▁لجنة": 2514,
      "▁سير": 2515,
      "راضي": 2516,
      "▁ارتفاع": 2517,
      "ئاسة": 2518,
      "▁تعدين": 2519,
      "▁الجهاز": 2520,
      "▁لر": 2521,
      "▁الأكثر": 2522,
      "صدار": 2523,
      "▁اج": 2524,
      "▁كامل": 2525,
      "هام": 2526,
      "▁المعدات": 2527,
      "▁شبكة": 2528,
      "▁السنة": 2529,
      "▁اللغة": 2530,
      "▁المناطق": 2531,
      "▁وغ": 2532,
      "▁جما": 2533,
      "طاق": 2534,
      "▁الحب": 2535,
      "▁معه": 2536,
      "ice": 2537,
      "طاقة": 2538,
      "▁الأسعار": 2539,
      "ديق": 2540,
      "▁كورونا": 2541,
      "ياس": 2542,
      "▁تريد": 2543,
      "غاية": 2544,
      "▁وصف": 2545,
      "▁السبت": 2546,
      "طال": 2547,
      "▁البحر": 2548,
      "▁بواسطة": 2549,
      "جاح": 2550,
      "باس": 2551,
      "▁يسم": 2552,
      "▁وسائل": 2553,
      "▁الحالي": 2554,
      "عاً": 2555,
      "▁العالمي": 2556,
      "علنت": 2557,
      "▁K": 2558,
      "▁يقدم": 2559,
      "▁سيكون": 2560,
      "▁روس": 2561,
      "▁تقرير": 2562,
      "▁الدفاع": 2563,
      "▁الإس": 2564,
      "▁المرك": 2565,
      "ريبة": 2566,
      "pp": 2567,
      "▁الشهر": 2568,
      "▁شع": 2569,
      "▁المصن": 2570,
      "ترنت": 2571,
      "▁الجميع": 2572,
      "▁بالس": 2573,
      "▁حكم": 2574,
      "▁الحكم": 2575,
      "▁موس": 2576,
      "▁خل": 2577,
      "ers": 2578,
      "▁الطلب": 2579,
      "روب": 2580,
      "▁اكت": 2581,
      "▁المشا": 2582,
      "بيب": 2583,
      "▁الوصول": 2584,
      "▁النق": 2585,
      "لاع": 2586,
      "▁الصغيرة": 2587,
      "▁بيت": 2588,
      "▁السيارات": 2589,
      "▁إخ": 2590,
      "▁تحتاج": 2591,
      "ve": 2592,
      "قتل": 2593,
      "▁فرن": 2594,
      "دائ": 2595,
      "▁عز": 2596,
      "▁العملية": 2597,
      "▁يناير": 2598,
      "امية": 2599,
      "▁الطب": 2600,
      "▁صحيفة": 2601,
      "▁بنا": 2602,
      "أي": 2603,
      "▁تحديد": 2604,
      "qu": 2605,
      "▁بذلك": 2606,
      "▁بير": 2607,
      "▁للاست": 2608,
      "▁الجسم": 2609,
      "▁المسؤول": 2610,
      "▁ريال": 2611,
      "▁الاقتصادية": 2612,
      "▁بهذا": 2613,
      "▁الكريم": 2614,
      "▁هؤلاء": 2615,
      "▁يجعل": 2616,
      "شفى": 2617,
      "▁الاجتماعية": 2618,
      "▁خص": 2619,
      "▁البعض": 2620,
      "براهيم": 2621,
      "▁أمن": 2622,
      "▁المغرب": 2623,
      "▁نقطة": 2624,
      "تمبر": 2625,
      "▁تمت": 2626,
      "▁أخبار": 2627,
      "▁إطار": 2628,
      "افي": 2629,
      "▁الأحد": 2630,
      "ore": 2631,
      "ريمة": 2632,
      "▁الأربعاء": 2633,
      "ُوا": 2634,
      "برى": 2635,
      "▁المطل": 2636,
      "▁المنتجات": 2637,
      "▁قيمة": 2638,
      "فيف": 2639,
      "▁النفط": 2640,
      "▁رمضان": 2641,
      "ئلة": 2642,
      "ريك": 2643,
      "اطر": 2644,
      "▁مارس": 2645,
      "ريس": 2646,
      "▁مصادر": 2647,
      "▁الثالث": 2648,
      "▁أط": 2649,
      "ائلة": 2650,
      "▁فهي": 2651,
      "▁الرائ": 2652,
      "ُل": 2653,
      "▁مباراة": 2654,
      "▁جل": 2655,
      "▁المقبل": 2656,
      "▁الصحية": 2657,
      "▁التعاون": 2658,
      "▁هيئة": 2659,
      "خرة": 2660,
      "ندق": 2661,
      "▁أكتوبر": 2662,
      "▁بان": 2663,
      "▁قوة": 2664,
      "▁حصل": 2665,
      "▁إنها": 2666,
      "ادرة": 2667,
      "سيس": 2668,
      "حتى": 2669,
      "▁الكبير": 2670,
      "قبال": 2671,
      "َس": 2672,
      "▁ظهر": 2673,
      "▁مسحوق": 2674,
      "صرف": 2675,
      "▁دراسة": 2676,
      "ew": 2677,
      "▁الصور": 2678,
      "ظاهر": 2679,
      "ريعة": 2680,
      "اعدة": 2681,
      "مبر": 2682,
      "عو": 2683,
      "يق": 2684,
      "▁السلطة": 2685,
      "واد": 2686,
      "▁عاما": 2687,
      "▁الأص": 2688,
      "▁رفع": 2689,
      "▁لعبة": 2690,
      "▁قطر": 2691,
      "▁النبات": 2692,
      "▁العملات": 2693,
      "▁th": 2694,
      "▁الفن": 2695,
      "▁الرغم": 2696,
      "▁نتائج": 2697,
      "▁تعرض": 2698,
      "▁الرجل": 2699,
      "اتهم": 2700,
      "▁الصفحة": 2701,
      "راقي": 2702,
      "▁بنسبة": 2703,
      "ادل": 2704,
      "ريض": 2705,
      "حيث": 2706,
      "▁إح": 2707,
      "▁النساء": 2708,
      "▁الطريق": 2709,
      "▁Al": 2710,
      "وائد": 2711,
      "!!": 2712,
      "▁اذا": 2713,
      "▁أرض": 2714,
      "ميزة": 2715,
      "▁قسم": 2716,
      "▁القطاع": 2717,
      "▁يريد": 2718,
      "▁بالش": 2719,
      "▁المحلية": 2720,
      "▁الطفل": 2721,
      "▁بحث": 2722,
      "طور": 2723,
      "خلي": 2724,
      "عليم": 2725,
      "▁e": 2726,
      "▁الفلسطينية": 2727,
      "وليو": 2728,
      "▁البناء": 2729,
      "جنبية": 2730,
      "▁توفير": 2731,
      "وبات": 2732,
      "▁جمي": 2733,
      "وحة": 2734,
      "▁تغيير": 2735,
      "▁الأل": 2736,
      "وفمبر": 2737,
      "▁ومت": 2738,
      "ِين": 2739,
      "▁جنيه": 2740,
      "▁أيضاً": 2741,
      "▁الإير": 2742,
      "▁y": 2743,
      "ra": 2744,
      "بس": 2745,
      "ine": 2746,
      "▁حياة": 2747,
      "▁البيت": 2748,
      "▁أهمية": 2749,
      "▁جهة": 2750,
      "وش": 2751,
      "مع": 2752,
      "▁بسي": 2753,
      "ونات": 2754,
      "الأ": 2755,
      "▁تعتبر": 2756,
      "صاص": 2757,
      "ّا": 2758,
      "بارك": 2759,
      "ائد": 2760,
      "ريبا": 2761,
      "▁الأسبوع": 2762,
      "▁الإخ": 2763,
      "▁المسي": 2764,
      "▁الاخت": 2765,
      "▁الوظ": 2766,
      "جمة": 2767,
      "▁الإق": 2768,
      "يرية": 2769,
      "▁رجل": 2770,
      "▁المرحلة": 2771,
      "▁خلف": 2772,
      "▁الذى": 2773,
      "▁افلام": 2774,
      "▁حوالي": 2775,
      "▁علاج": 2776,
      "ستخدم": 2777,
      "اره": 2778,
      "بيقات": 2779,
      "ess": 2780,
      "صى": 2781,
      "▁المواطنين": 2782,
      "▁السر": 2783,
      "▁المعا": 2784,
      "▁لط": 2785,
      "باع": 2786,
      "▁معالجة": 2787,
      "طط": 2788,
      "ديا": 2789,
      "طوير": 2790,
      "▁الجام": 2791,
      "▁بمن": 2792,
      "▁الثنائية": 2793,
      "ct": 2794,
      "▁القوات": 2795,
      "فاف": 2796,
      "▁أرب": 2797,
      "▁السب": 2798,
      "الج": 2799,
      "ثمر": 2800,
      "فيات": 2801,
      "▁الكل": 2802,
      "رر": 2803,
      "ارنة": 2804,
      "▁لدينا": 2805,
      "لعاب": 2806,
      "▁طويلة": 2807,
      "جهيز": 2808,
      "ديمة": 2809,
      "▁الإلكتروني": 2810,
      "▁التجارة": 2811,
      "امين": 2812,
      "بين": 2813,
      "▁تصل": 2814,
      "▁اغ": 2815,
      "▁يصل": 2816,
      "ثلة": 2817,
      "▁كانوا": 2818,
      "افحة": 2819,
      "▁الانترنت": 2820,
      "شاف": 2821,
      "بيت": 2822,
      "▁تض": 2823,
      "▁القرن": 2824,
      "شطة": 2825,
      "ُون": 2826,
      "الا": 2827,
      "حمد": 2828,
      "▁النفس": 2829,
      "▁وهم": 2830,
      "هولة": 2831,
      "دون": 2832,
      "▁بأنه": 2833,
      "▁يحدث": 2834,
      "عمة": 2835,
      "ائزة": 2836,
      "ناق": 2837,
      "▁سبتمبر": 2838,
      "▁وحدة": 2839,
      "▁لاعب": 2840,
      "▁واق": 2841,
      "▁يونيو": 2842,
      "ليه": 2843,
      "رام": 2844,
      "▁الزرا": 2845,
      "▁مناط": 2846,
      "▁تتح": 2847,
      "ابه": 2848,
      "▁البيانات": 2849,
      "▁لهذه": 2850,
      "وجيه": 2851,
      "▁الاتصال": 2852,
      "ماس": 2853,
      "▁١": 2854,
      "يمان": 2855,
      "راكز": 2856,
      "ئيسي": 2857,
      "ديثة": 2858,
      "هيل": 2859,
      "▁المرا": 2860,
      "▁النس": 2861,
      "eb": 2862,
      "▁الهيئة": 2863,
      "▁الدع": 2864,
      "▁للغاية": 2865,
      "▁تكلفة": 2866,
      "▁جيد": 2867,
      "▁شه": 2868,
      "هلي": 2869,
      "▁>": 2870,
      "اله": 2871,
      "tp": 2872,
      "سد": 2873,
      "▁ضع": 2874,
      "وقات": 2875,
      "▁اض": 2876,
      "▁on": 2877,
      "▁إست": 2878,
      "▁افضل": 2879,
      "ندوق": 2880,
      "▁تز": 2881,
      "▁المرت": 2882,
      "os": 2883,
      "▁اشت": 2884,
      "قييم": 2885,
      "رش": 2886,
      "▁الاحتلال": 2887,
      "▁الجيري": 2888,
      "▁الألم": 2889,
      "▁إحدى": 2890,
      "فقة": 2891,
      "سمبر": 2892,
      "ادت": 2893,
      "▁مناطق": 2894,
      "خاذ": 2895,
      "▁الكم": 2896,
      "▁إيج": 2897,
      "َان": 2898,
      "▁أصبح": 2899,
      "ستاذ": 2900,
      "▁الحا": 2901,
      "▁المرض": 2902,
      "▁الإمام": 2903,
      "▁الكب": 2904,
      "خصصة": 2905,
      "▁برامج": 2906,
      "▁القص": 2907,
      "▁الماضية": 2908,
      "حاس": 2909,
      "▁المستخدم": 2910,
      "▁الإدارة": 2911,
      "▁الطرق": 2912,
      "▁الجامعة": 2913,
      "▁سين": 2914,
      "est": 2915,
      "▁روسيا": 2916,
      "يروس": 2917,
      "▁رفض": 2918,
      "▁رح": 2919,
      "▁تسجيل": 2920,
      "▁الإد": 2921,
      "▁القرار": 2922,
      "▁نوفمبر": 2923,
      "▁السورية": 2924,
      "▁دفع": 2925,
      "▁الملف": 2926,
      "منة": 2927,
      "▁مرض": 2928,
      "▁فهم": 2929,
      "▁الاح": 2930,
      "بيض": 2931,
      "طح": 2932,
      "▁مدى": 2933,
      "واعد": 2934,
      "ضيع": 2935,
      "رع": 2936,
      "▁وقالت": 2937,
      "▁شمال": 2938,
      "تهاء": 2939,
      "▁فمن": 2940,
      "كين": 2941,
      "▁وير": 2942,
      "▁دقيقة": 2943,
      "▁الشخصية": 2944,
      "▁آل": 2945,
      "ودية": 2946,
      "وتي": 2947,
      "هج": 2948,
      "▁محافظة": 2949,
      "▁In": 2950,
      "كوين": 2951,
      "▁وظائف": 2952,
      "▁صغير": 2953,
      "▁صي": 2954,
      "▁وبالتالي": 2955,
      "▁بدأت": 2956,
      "▁القيام": 2957,
      "▁وحتى": 2958,
      "▁احصل": 2959,
      "▁التعامل": 2960,
      "زالة": 2961,
      "▁تعلم": 2962,
      "um": 2963,
      "▁السودان": 2964,
      "اق": 2965,
      "▁منتجات": 2966,
      "▁مترجم": 2967,
      "▁العمر": 2968,
      "▁بلد": 2969,
      "».": 2970,
      "▁بلاد": 2971,
      "▁قوله": 2972,
      "▁المطر": 2973,
      "▁Y": 2974,
      "▁الأمور": 2975,
      "▁الأشخاص": 2976,
      "▁تحدث": 2977,
      "▁العاصمة": 2978,
      "فيد": 2979,
      "حاء": 2980,
      "▁المادة": 2981,
      "▁دليل": 2982,
      "صلة": 2983,
      "شرف": 2984,
      "▁أصحاب": 2985,
      "▁يأتي": 2986,
      "▁بث": 2987,
      "▁يتعلق": 2988,
      "▁الطرف": 2989,
      "وارد": 2990,
      "▁مصدر": 2991,
      "▁المستقبل": 2992,
      "▁التخ": 2993,
      "زيع": 2994,
      "علقة": 2995,
      "▁نادي": 2996,
      "▁المورد": 2997,
      "وانين": 2998,
      "▁العسكرية": 2999,
      "▁الأوسط": 3000,
      "▁مكت": 3001,
      "▁قناة": 3002,
      "▁المعار": 3003,
      "▁فإ": 3004,
      "▁سجل": 3005,
      "▁الخليج": 3006,
      "▁تا": 3007,
      "مارسة": 3008,
      "نائي": 3009,
      "▁رسالة": 3010,
      "▁شهد": 3011,
      "▁الصحي": 3012,
      "▁قلي": 3013,
      "▁فلسطين": 3014,
      "▁درا": 3015,
      "يره": 3016,
      "ونه": 3017,
      "▁أوروبا": 3018,
      "جاب": 3019,
      "براير": 3020,
      "▁المجال": 3021,
      "▁الأساسية": 3022,
      "▁العلاقات": 3023,
      "شاركة": 3024,
      "▁بالد": 3025,
      "▁بالا": 3026,
      "احث": 3027,
      "▁بهذه": 3028,
      "▁برو": 3029,
      "▁لخ": 3030,
      "كانية": 3031,
      "خيص": 3032,
      "▁صحيح": 3033,
      "▁الرمل": 3034,
      "وخ": 3035,
      "ذن": 3036,
      "▁سيتم": 3037,
      "عيم": 3038,
      "▁الثقاف": 3039,
      "▁وبال": 3040,
      "▁الاتفاق": 3041,
      "▁لتن": 3042,
      "▁المخت": 3043,
      "صالات": 3044,
      "▁مايو": 3045,
      "جابة": 3046,
      "▁اتفاق": 3047,
      "▁الدي": 3048,
      "ادن": 3049,
      "▁+": 3050,
      "▁الانتخابات": 3051,
      "▁سيد": 3052,
      "▁الإش": 3053,
      "حه": 3054,
      "ادث": 3055,
      "▁الأسهم": 3056,
      "▁للحصول": 3057,
      "ارد": 3058,
      "▁كثيرة": 3059,
      "▁إنشاء": 3060,
      "ّر": 3061,
      "▁والمت": 3062,
      "▁السابقة": 3063,
      "فاة": 3064,
      "▁بدأ": 3065,
      "▁محد": 3066,
      "ارق": 3067,
      "▁بني": 3068,
      "▁البل": 3069,
      "▁الطعام": 3070,
      "▁النص": 3071,
      "▁تحمل": 3072,
      "ئين": 3073,
      "▁الدوري": 3074,
      "▁مسلسل": 3075,
      "▁البريط": 3076,
      "▁يحتاج": 3077,
      "اريات": 3078,
      "▁دار": 3079,
      "قطع": 3080,
      "هادة": 3081,
      "ليب": 3082,
      "▁فك": 3083,
      "فه": 3084,
      "our": 3085,
      "▁طرق": 3086,
      "▁مشاهدة": 3087,
      "مم": 3088,
      "▁٢": 3089,
      "▁الأمم": 3090,
      "فادة": 3091,
      "▁قالت": 3092,
      "▁وعدم": 3093,
      "▁المصنعة": 3094,
      "▁وتأ": 3095,
      "▁يستخدم": 3096,
      "▁البد": 3097,
      "▁اقت": 3098,
      "▁وعند": 3099,
      "لل": 3100,
      "▁وست": 3101,
      "صري": 3102,
      "▁وإذا": 3103,
      "▁لماذا": 3104,
      "▁الصلاة": 3105,
      "▁الأز": 3106,
      "▁الور": 3107,
      "▁الشرطة": 3108,
      "▁النوع": 3109,
      "ّل": 3110,
      "▁حمل": 3111,
      "اليات": 3112,
      "▁الإنتاج": 3113,
      "راث": 3114,
      "بلة": 3115,
      "فاوض": 3116,
      "▁جودة": 3117,
      "صفات": 3118,
      "قيقي": 3119,
      "حر": 3120,
      "▁المنش": 3121,
      "▁تجاه": 3122,
      "▁العلاج": 3123,
      "▁سبب": 3124,
      "جلة": 3125,
      "▁مِنْ": 3126,
      "▁ربما": 3127,
      "كب": 3128,
      "جزاء": 3129,
      "▁الأغ": 3130,
      "ويد": 3131,
      "▁ولاية": 3132,
      "وها": 3133,
      "▁خب": 3134,
      "▁حكومة": 3135,
      "▁عا": 3136,
      "▁الخدمة": 3137,
      "▁طالب": 3138,
      "▁نفسها": 3139,
      "اية": 3140,
      "▁يغ": 3141,
      "all": 3142,
      "▁ديسمبر": 3143,
      "▁الجانب": 3144,
      "▁بهدف": 3145,
      "ــــــــ": 3146,
      "▁زيارة": 3147,
      "▁الديمقرا": 3148,
      "كذا": 3149,
      "ُم": 3150,
      "▁المباراة": 3151,
      "تاح": 3152,
      "op": 3153,
      "عددة": 3154,
      "▁الوضع": 3155,
      "وسي": 3156,
      "▁دخل": 3157,
      "ضيف": 3158,
      "▁أعلنت": 3159,
      "▁ساعات": 3160,
      "ائع": 3161,
      "▁فإنه": 3162,
      "▁الرمال": 3163,
      "▁افت": 3164,
      "زات": 3165,
      "▁الزوج": 3166,
      "ِر": 3167,
      "ِهِ": 3168,
      "كير": 3169,
      "▁إجراء": 3170,
      "عامل": 3171,
      "▁صالح": 3172,
      "ريت": 3173,
      "ابلة": 3174,
      "▁أمير": 3175,
      "▁اكثر": 3176,
      "▁كاملة": 3177,
      "بعة": 3178,
      "سيم": 3179,
      "▁المُ": 3180,
      "▁يؤدي": 3181,
      "▁يساعد": 3182,
      "▁للخ": 3183,
      "▁قامت": 3184,
      "▁نصف": 3185,
      "شات": 3186,
      "▁غزة": 3187,
      "ind": 3188,
      "▁لكي": 3189,
      "▁خصوص": 3190,
      "th": 3191,
      "مسة": 3192,
      "▁النار": 3193,
      "وسف": 3194,
      "▁النمو": 3195,
      "▁بور": 3196,
      "ياد": 3197,
      "فاعل": 3198,
      "▁محت": 3199,
      "▁لديك": 3200,
      "سطس": 3201,
      "▁قلب": 3202,
      "▁مقا": 3203,
      "▁العراقي": 3204,
      "حاول": 3205,
      "▁يوليو": 3206,
      "▁يَ": 3207,
      "▁يمن": 3208,
      "الثة": 3209,
      "▁امت": 3210,
      "▁الصورة": 3211,
      "▁لاب": 3212,
      "رسال": 3213,
      "َالَ": 3214,
      "▁رياض": 3215,
      "▁ملا": 3216,
      "▁مشكلة": 3217,
      "▁البنك": 3218,
      "▁الاستثمار": 3219,
      "▁القلب": 3220,
      "▁معرفة": 3221,
      "اا": 3222,
      "روة": 3223,
      "▁الوزارة": 3224,
      "▁وعن": 3225,
      "سون": 3226,
      "▁والغ": 3227,
      "▁بنفس": 3228,
      "▁تكسير": 3229,
      "▁خالد": 3230,
      "▁أساس": 3231,
      "▁عبارة": 3232,
      "▁المستخدمة": 3233,
      "راحة": 3234,
      "▁الدست": 3235,
      "عيين": 3236,
      "▁صد": 3237,
      "▁للب": 3238,
      "▁المدني": 3239,
      "نائ": 3240,
      "جين": 3241,
      "▁التطبيق": 3242,
      "سيا": 3243,
      "▁تشغيل": 3244,
      "جح": 3245,
      "▁أعلن": 3246,
      "▁الدخول": 3247,
      "▁بحيث": 3248,
      "▁والط": 3249,
      "▁نطاق": 3250,
      "▁توفر": 3251,
      "▁الهاتف": 3252,
      "▁يبدو": 3253,
      "▁العن": 3254,
      "▁الأب": 3255,
      "▁بسر": 3256,
      "افية": 3257,
      "▁أعضاء": 3258,
      "▁الاسمنت": 3259,
      "▁فبراير": 3260,
      "▁ممت": 3261,
      "▁رؤية": 3262,
      "▁النت": 3263,
      "عش": 3264,
      "▁مباشر": 3265,
      "▁تساعد": 3266,
      "ليقات": 3267,
      "▁لذا": 3268,
      "قوم": 3269,
      "يته": 3270,
      "ويس": 3271,
      "▁زيت": 3272,
      "▁دخول": 3273,
      "بو": 3274,
      "▁خطة": 3275,
      "▁نز": 3276,
      "▁الجمهورية": 3277,
      "واجه": 3278,
      "▁المحمول": 3279,
      "▁مرحلة": 3280,
      "▁الحركة": 3281,
      "▁ابت": 3282,
      "▁منزل": 3283,
      "خفاض": 3284,
      "ماً": 3285,
      "▁الفيديو": 3286,
      "▁مؤك": 3287,
      "▁ولو": 3288,
      "▁ذا": 3289,
      "▁حرب": 3290,
      "سيل": 3291,
      "▁والتن": 3292,
      "▁القدس": 3293,
      "▁المكان": 3294,
      "امت": 3295,
      "▁الأوروبي": 3296,
      "▁وهذه": 3297,
      "▁for": 3298,
      "▁ماذا": 3299,
      "▁إطلاق": 3300,
      "▁تنظيف": 3301,
      "▁جان": 3302,
      "هَا": 3303,
      "▁فَ": 3304,
      "▁إف": 3305,
      "▁•": 3306,
      "oc": 3307,
      "قيلة": 3308,
      "▁خير": 3309,
      "يدر": 3310,
      "▁حاليا": 3311,
      "▁ألا": 3312,
      "▁سف": 3313,
      "نيف": 3314,
      "فى": 3315,
      "▁الدعم": 3316,
      "▁is": 3317,
      "▁الدراسة": 3318,
      "▁فيديو": 3319,
      "افر": 3320,
      "▁التربية": 3321,
      "ضى": 3322,
      "▁المتن": 3323,
      "▁المسا": 3324,
      "▁المستوى": 3325,
      "▁الدور": 3326,
      "وَ": 3327,
      "▁معد": 3328,
      "▁الاثنين": 3329,
      "▁بحسب": 3330,
      "▁مخت": 3331,
      "▁توق": 3332,
      "ندي": 3333,
      "▁أنهم": 3334,
      "▁الدائ": 3335,
      "▁الإسلامي": 3336,
      "▁جيدة": 3337,
      "ظار": 3338,
      "ثناء": 3339,
      "▁صوت": 3340,
      "▁الطبية": 3341,
      "▁The": 3342,
      "تيب": 3343,
      "▁فان": 3344,
      "▁وصول": 3345,
      "▁بدء": 3346,
      "▁مهمة": 3347,
      "▁فرصة": 3348,
      "____": 3349,
      "قى": 3350,
      "▁كار": 3351,
      "▁ويس": 3352,
      "▁موقف": 3353,
      "▁كثيرا": 3354,
      "▁الخبر": 3355,
      "خصوص": 3356,
      "ْد": 3357,
      "عزيز": 3358,
      "▁عضو": 3359,
      "اربة": 3360,
      "اخ": 3361,
      "ak": 3362,
      "»،": 3363,
      "▁كأس": 3364,
      "ُونَ": 3365,
      "ائرة": 3366,
      "قديم": 3367,
      "بادرة": 3368,
      "▁اليد": 3369,
      "▁رجال": 3370,
      "▁سوى": 3371,
      "▁علينا": 3372,
      "ww": 3373,
      "▁النحاس": 3374,
      "امن": 3375,
      "▁بتح": 3376,
      "▁عص": 3377,
      "▁الروا": 3378,
      "▁قتل": 3379,
      "ائن": 3380,
      "▁وأشار": 3381,
      "يلم": 3382,
      "▁بالل": 3383,
      "▁مفت": 3384,
      "ِينَ": 3385,
      "ill": 3386,
      "▁سليم": 3387,
      "فاءة": 3388,
      "▁كشف": 3389,
      "سلوب": 3390,
      "▁ملك": 3391,
      "▁إع": 3392,
      "▁تفاصيل": 3393,
      "▁الفني": 3394,
      "▁بقي": 3395,
      "ثور": 3396,
      "▁الإسرائيلي": 3397,
      "▁والتح": 3398,
      "▁الاقتصادي": 3399,
      "▁الحزب": 3400,
      "ولية": 3401,
      "وامل": 3402,
      "▁سعيد": 3403,
      "▁للص": 3404,
      "▁شعر": 3405,
      "قرة": 3406,
      "▁الأخير": 3407,
      "▁المحا": 3408,
      "ظل": 3409,
      "▁قراءة": 3410,
      "بيه": 3411,
      "حيان": 3412,
      "▁وفقا": 3413,
      "قرير": 3414,
      "جاوز": 3415,
      "ook": 3416,
      "مدينة": 3417,
      "▁صنا": 3418,
      "▁كرة": 3419,
      "▁r": 3420,
      "▁الثورة": 3421,
      "ياب": 3422,
      "▁مجرد": 3423,
      "▁المتعلقة": 3424,
      "▁بطريقة": 3425,
      "▁يحتوي": 3426,
      "دير": 3427,
      "▁ضرورة": 3428,
      "▁متح": 3429,
      "▁فما": 3430,
      "▁الغربية": 3431,
      "الع": 3432,
      "داية": 3433,
      "▁المحد": 3434,
      "جليزية": 3435,
      "▁الأخبار": 3436,
      "▁تنا": 3437,
      "▁تمكن": 3438,
      "▁حماية": 3439,
      "▁منظمة": 3440,
      "ناية": 3441,
      "كسارة": 3442,
      "خراج": 3443,
      "▁وكالة": 3444,
      "قرر": 3445,
      "▁الثان": 3446,
      "ِم": 3447,
      "شاط": 3448,
      "حقق": 3449,
      "▁كيل": 3450,
      "▁الحالة": 3451,
      "ائح": 3452,
      "▁عبدالله": 3453,
      "▁العامل": 3454,
      "▁كر": 3455,
      "راه": 3456,
      "جير": 3457,
      "▁شأن": 3458,
      "▁العملاء": 3459,
      "▁تحتوي": 3460,
      "ولين": 3461,
      "▁يستطيع": 3462,
      "قائق": 3463,
      "▁هاتف": 3464,
      "ردشة": 3465,
      "▁المنتج": 3466,
      "راح": 3467,
      "▁هدف": 3468,
      "▁وأوضح": 3469,
      "▁للط": 3470,
      "▁المنتخب": 3471,
      "▁لات": 3472,
      "ويتر": 3473,
      "▁وتس": 3474,
      "rice": 3475,
      "بغي": 3476,
      "عملة": 3477,
      "عدات": 3478,
      "▁رسم": 3479,
      "▁بالخ": 3480,
      "▁عيد": 3481,
      "ce": 3482,
      "▁الأق": 3483,
      "رار": 3484,
      "▁مكتب": 3485,
      "▁العض": 3486,
      "فاج": 3487,
      "▁الرقم": 3488,
      "صاب": 3489,
      "ضب": 3490,
      "▁محافظ": 3491,
      "زوج": 3492,
      "▁اللقاء": 3493,
      "غال": 3494,
      "▁أه": 3495,
      "ّم": 3496,
      "▁محمود": 3497,
      "▁واض": 3498,
      "ah": 3499,
      "▁عادة": 3500,
      "ُر": 3501,
      "▁الْم": 3502,
      "▁وراء": 3503,
      "▁قول": 3504,
      "//": 3505,
      "▁مواجهة": 3506,
      "▁تحديث": 3507,
      "▁ترامب": 3508,
      "فذ": 3509,
      "▁تكن": 3510,
      "▁وكيف": 3511,
      "▁أخذ": 3512,
      "ib": 3513,
      "▁يزيد": 3514,
      "قام": 3515,
      "▁للك": 3516,
      "ندس": 3517,
      "▁الاب": 3518,
      "▁علاقة": 3519,
      "▁الحمل": 3520,
      "▁كلا": 3521,
      "▁بيانات": 3522,
      "▁إبراهيم": 3523,
      "▁مشت": 3524,
      "▁الطلاب": 3525,
      "▁مؤسسة": 3526,
      "▁الجزء": 3527,
      "▁المؤتمر": 3528,
      "ساد": 3529,
      "▁طرف": 3530,
      "عاقد": 3531,
      "▁والله": 3532,
      "صدق": 3533,
      "▁انها": 3534,
      "▁خيارات": 3535,
      "ألة": 3536,
      "▁تعليم": 3537,
      "ورو": 3538,
      "واقف": 3539,
      "▁الني": 3540,
      "▁تسم": 3541,
      "ولد": 3542,
      "▁أجهزة": 3543,
      "▁الطريقة": 3544,
      "▁تلق": 3545,
      "▁قضية": 3546,
      "▁بالج": 3547,
      "ياجات": 3548,
      "▁المي": 3549,
      "خدمات": 3550,
      "▁للر": 3551,
      "عون": 3552,
      "وره": 3553,
      "نيات": 3554,
      "ov": 3555,
      "▁بهم": 3556,
      "▁التالي": 3557,
      "لالة": 3558,
      "بض": 3559,
      "لاحظ": 3560,
      "▁نائب": 3561,
      "▁الصناعية": 3562,
      "▁يوما": 3563,
      "هرجان": 3564,
      "▁العلمية": 3565,
      "▁مار": 3566,
      "▁بشر": 3567,
      "▁الشاشة": 3568,
      "▁السلطات": 3569,
      "▁أحدث": 3570,
      "بادل": 3571,
      "ht": 3572,
      "قيقية": 3573,
      "▁انا": 3574,
      "عته": 3575,
      "▁الأو": 3576,
      "▁وهناك": 3577,
      "ندا": 3578,
      "▁تجربة": 3579,
      "بطة": 3580,
      "لين": 3581,
      "▁التنمية": 3582,
      "▁العليا": 3583,
      "▁بالط": 3584,
      "▁غرب": 3585,
      "▁عنوان": 3586,
      "تش": 3587,
      "ويا": 3588,
      "▁الأيام": 3589,
      "▁الإف": 3590,
      "▁سيارة": 3591,
      "يون": 3592,
      "▁مواد": 3593,
      "▁الجودة": 3594,
      "▁فكرة": 3595,
      "صلحة": 3596,
      "ريا": 3597,
      "عبير": 3598,
      "ويم": 3599,
      "▁خلا": 3600,
      "▁الكبيرة": 3601,
      "▁عش": 3602,
      "ارير": 3603,
      "لفزي": 3604,
      "▁مشاركة": 3605,
      "▁الاول": 3606,
      "▁ولد": 3607,
      "ائه": 3608,
      "▁المحلي": 3609,
      "▁المصنع": 3610,
      "▁تفسير": 3611,
      "▁توجد": 3612,
      "هلة": 3613,
      "▁نعم": 3614,
      "▁خلي": 3615,
      "▁مالي": 3616,
      "بحت": 3617,
      "باً": 3618,
      "▁المعت": 3619,
      "▁ورد": 3620,
      "ويق": 3621,
      "بيعات": 3622,
      "▁الكبرى": 3623,
      "▁الحكومية": 3624,
      "فيه": 3625,
      "▁لقاء": 3626,
      "▁الشمس": 3627,
      "هذا": 3628,
      "▁الزمن": 3629,
      "▁الحدود": 3630,
      "▁مشاكل": 3631,
      "▁نجاح": 3632,
      "▁مهم": 3633,
      "▁تظهر": 3634,
      "رز": 3635,
      "عاء": 3636,
      "▁أبريل": 3637,
      "تيح": 3638,
      "وصل": 3639,
      "▁الكسارات": 3640,
      "▁الإلكترونية": 3641,
      "▁أهداف": 3642,
      "▁المطرقة": 3643,
      "▁أغسطس": 3644,
      "▁القديمة": 3645,
      "▁ممكن": 3646,
      "▁البرامج": 3647,
      "خم": 3648,
      "▁محاولة": 3649,
      "يير": 3650,
      "▁المثال": 3651,
      "▁طال": 3652,
      "▁لاف": 3653,
      "▁الياب": 3654,
      "▁اللازمة": 3655,
      "▁خلق": 3656,
      "▁معها": 3657,
      "وزارة": 3658,
      "ولت": 3659,
      "نادق": 3660,
      "▁التالية": 3661,
      "▁المعادن": 3662,
      "▁ظهور": 3663,
      "▁تشكيل": 3664,
      "▁المؤسسات": 3665,
      "▁الاسلام": 3666,
      "▁قصة": 3667,
      "ُّ": 3668,
      "حافظة": 3669,
      "▁المحمولة": 3670,
      "صرية": 3671,
      "انيت": 3672,
      "▁السبب": 3673,
      "▁ليبيا": 3674,
      "▁k": 3675,
      "بنى": 3676,
      "ِّ": 3677,
      "▁الباب": 3678,
      "عتبار": 3679,
      "▁فرض": 3680,
      "▁الأقل": 3681,
      "جمالي": 3682,
      "▁السم": 3683,
      "▁أبرز": 3684,
      "▁مطاحن": 3685,
      "▁الهدف": 3686,
      "▁الفا": 3687,
      "▁المواقع": 3688,
      "▁الأجنبية": 3689,
      "▁امر": 3690,
      "ap": 3691,
      "▁تماما": 3692,
      "▁المجموعة": 3693,
      "▁المحكمة": 3694,
      "▁ونحن": 3695,
      "▁وذكر": 3696,
      "▁الطبيعية": 3697,
      "ang": 3698,
      "▁الساد": 3699,
      "▁لأنها": 3700,
      "▁كلام": 3701,
      "كور": 3702,
      "وانات": 3703,
      "▁البلا": 3704,
      "ush": 3705,
      "▁اخبار": 3706,
      "▁متنقلة": 3707,
      "▁عامة": 3708,
      "▁مقر": 3709,
      "▁وأش": 3710,
      "ناف": 3711,
      "▁حالات": 3712,
      "▁الري": 3713,
      "▁تمام": 3714,
      "وجب": 3715,
      "▁تقول": 3716,
      "▁أسباب": 3717,
      "▁بذ": 3718,
      "خرا": 3719,
      "▁الإست": 3720,
      "َف": 3721,
      "اتك": 3722,
      "ّه": 3723,
      "://": 3724,
      "داة": 3725,
      "▁نيوز": 3726,
      "▁الرئيسي": 3727,
      "▁لغ": 3728,
      "▁النو": 3729,
      "▁المبا": 3730,
      "ip": 3731,
      "ادم": 3732,
      "▁الأج": 3733,
      "▁مقارنة": 3734,
      "▁الموجودة": 3735,
      "▁لكنه": 3736,
      "▁تقد": 3737,
      "هه": 3738,
      "▁ماكينة": 3739,
      "▁الكمبيوتر": 3740,
      "عدد": 3741,
      "▁العرض": 3742,
      "هرة": 3743,
      "▁رضي": 3744,
      "▁الباحث": 3745,
      "ورت": 3746,
      "▁أنحاء": 3747,
      "▁تث": 3748,
      "▁النقل": 3749,
      "▁تجد": 3750,
      "راجعة": 3751,
      "▁بالفعل": 3752,
      "ذار": 3753,
      "ميات": 3754,
      "راقبة": 3755,
      "▁ألمانيا": 3756,
      "▁العزيز": 3757,
      "كونات": 3758,
      "انيين": 3759,
      "▁اص": 3760,
      "▁أصبحت": 3761,
      "رويد": 3762,
      "▁الأمنية": 3763,
      "▁العسكري": 3764,
      "▁لجميع": 3765,
      "▁قدرة": 3766,
      "▁re": 3767,
      "▁رج": 3768,
      "▁التابعة": 3769,
      "▁فصل": 3770,
      "▁الفنان": 3771,
      "▁المقد": 3772,
      "are": 3773,
      "▁الرك": 3774,
      "▁مصانع": 3775,
      "▁الموسم": 3776,
      "if": 3777,
      "قطاع": 3778,
      "▁يرج": 3779,
      "خال": 3780,
      "▁تعزيز": 3781,
      "▁بالر": 3782,
      "▁خبر": 3783,
      "▁الحقيقة": 3784,
      "▁الوسط": 3785,
      "▁آلاف": 3786,
      "▁مسا": 3787,
      "▁ايضا": 3788,
      "ذين": 3789,
      "فعة": 3790,
      "▁خلالها": 3791,
      "▁صحة": 3792,
      "سس": 3793,
      "▁وأم": 3794,
      "▁St": 3795,
      "▁جمع": 3796,
      "▁العين": 3797,
      "▁الفرق": 3798,
      "▁يحمل": 3799,
      "عبد": 3800,
      "قتصادية": 3801,
      "▁حف": 3802,
      "▁مناف": 3803,
      "▁شاهد": 3804,
      "▁الفنية": 3805,
      "▁لديه": 3806,
      "▁زمن": 3807,
      "▁أداء": 3808,
      "سبق": 3809,
      "▁بعي": 3810,
      "▁المدير": 3811,
      "الغ": 3812,
      "▁العلماء": 3813,
      "ْب": 3814,
      "خام": 3815,
      "حسب": 3816,
      "▁مشيرا": 3817,
      "وند": 3818,
      "▁النقد": 3819,
      "قلت": 3820,
      "▁الوظائف": 3821,
      "▁عليكم": 3822,
      "زاب": 3823,
      "▁القضاء": 3824,
      "▁الأجهزة": 3825,
      "▁القول": 3826,
      "وافق": 3827,
      "▁الكسارة": 3828,
      "▁فرنسا": 3829,
      "ينما": 3830,
      "▁الدورة": 3831,
      "▁التم": 3832,
      "بهة": 3833,
      "▁وخاصة": 3834,
      "▁لاح": 3835,
      "▁يذكر": 3836,
      "▁غرفة": 3837,
      "▁تستطيع": 3838,
      "▁عين": 3839,
      "▁الرق": 3840,
      "▁كش": 3841,
      "وو": 3842,
      "▁الفرنسي": 3843,
      "▁موظ": 3844,
      "▁يعيش": 3845,
      "▁الدنيا": 3846,
      "▁المصدر": 3847,
      "وجود": 3848,
      "▁للتح": 3849,
      "▁شرق": 3850,
      "طيط": 3851,
      "▁الذات": 3852,
      "▁النادي": 3853,
      "▁كا": 3854,
      "▁السيارة": 3855,
      "▁فإذا": 3856,
      "▁منع": 3857,
      "جموعات": 3858,
      "▁مادة": 3859,
      "فن": 3860,
      "▁الثالثة": 3861,
      "▁الجل": 3862,
      "▁PM": 3863,
      "▁الآخرين": 3864,
      "▁اللح": 3865,
      "▁وجد": 3866,
      "سرائيلية": 3867,
      "▁الهواء": 3868,
      "▁مطل": 3869,
      "▁حقيقة": 3870,
      "روح": 3871,
      "▁الإجراءات": 3872,
      "▁النواب": 3873,
      "▁الجر": 3874,
      "▁يوسف": 3875,
      "▁احد": 3876,
      "فال": 3877,
      "▁يب": 3878,
      "ناس": 3879,
      "▁شخصية": 3880,
      "منى": 3881,
      "▁معنى": 3882,
      "ليس": 3883,
      "▁أبناء": 3884,
      "▁المناسب": 3885,
      "▁الضغط": 3886,
      "▁معت": 3887,
      "ورك": 3888,
      "▁الطبيعي": 3889,
      "ik": 3890,
      "▁انتشار": 3891,
      "▁ستكون": 3892,
      "▁الرحمن": 3893,
      "▁لتحقيق": 3894,
      "ريحات": 3895,
      "ارا": 3896,
      "▁الكر": 3897,
      "ويض": 3898,
      "▁حدود": 3899,
      "▁بنت": 3900,
      "▁المركزي": 3901,
      "شح": 3902,
      "og": 3903,
      "▁الوجه": 3904,
      "▁لإن": 3905,
      "ليك": 3906,
      "درجة": 3907,
      "▁لكرة": 3908,
      "شنطن": 3909,
      "▁الحديثة": 3910,
      "آخر": 3911,
      "ترام": 3912,
      "؟؟": 3913,
      "▁حز": 3914,
      "▁المقبلة": 3915,
      "od": 3916,
      "▁ترا": 3917,
      "علانات": 3918,
      "قين": 3919,
      "▁الرياضية": 3920,
      "عن": 3921,
      "َوْ": 3922,
      "رص": 3923,
      "▁العب": 3924,
      "راز": 3925,
      "▁عناصر": 3926,
      "يح": 3927,
      "▁تونس": 3928,
      "▁عمان": 3929,
      "ليمي": 3930,
      "▁شن": 3931,
      "▁التسجيل": 3932,
      "▁سبق": 3933,
      "▁بسرعة": 3934,
      "▁وأي": 3935,
      "▁الأبيض": 3936,
      "▁تقع": 3937,
      "▁الفصل": 3938,
      "▁ينبغي": 3939,
      "▁القادمة": 3940,
      "▁الكلام": 3941,
      "▁السفر": 3942,
      "اركات": 3943,
      "▁والمن": 3944,
      "▁الجهات": 3945,
      "▁ويتم": 3946,
      "دخل": 3947,
      "ـــ": 3948,
      "يريا": 3949,
      "ort": 3950,
      "▁التقلي": 3951,
      "▁الأصل": 3952,
      "شط": 3953,
      "▁وإنما": 3954,
      "عيات": 3955,
      "غلاق": 3956,
      "غاء": 3957,
      "▁الجاري": 3958,
      "▁السنوات": 3959,
      "▁الحس": 3960,
      "▁المض": 3961,
      "على": 3962,
      "▁جمال": 3963,
      "▁الرسمي": 3964,
      "▁أنك": 3965,
      "▁رحم": 3966,
      "ابقة": 3967,
      "▁الأميركية": 3968,
      "▁الخلا": 3969,
      "▁مات": 3970,
      "عدا": 3971,
      "▁البشرية": 3972,
      "طفى": 3973,
      "▁القضية": 3974,
      "نوات": 3975,
      "▁لديها": 3976,
      "▁&": 3977,
      "قف": 3978,
      "ابر": 3979,
      "▁الرجال": 3980,
      "همية": 3981,
      "▁الده": 3982,
      "▁نشاط": 3983,
      "▁بينهم": 3984,
      "تون": 3985,
      "فاً": 3986,
      "ديه": 3987,
      "▁الها": 3988,
      "▁قوية": 3989,
      "▁مؤتمر": 3990,
      "▁القدرة": 3991,
      "▁لض": 3992,
      "غبة": 3993,
      "▁بالب": 3994,
      "▁سيارات": 3995,
      "▁الجمعية": 3996,
      "▁الممكن": 3997,
      "اعد": 3998,
      "عتها": 3999,
      "▁للعمل": 4000,
      "▁القوة": 4001,
      "▁التك": 4002,
      "▁الدر": 4003,
      "▁رأي": 4004,
      "▁موعد": 4005,
      "ّد": 4006,
      "▁إث": 4007,
      "▁إب": 4008,
      "▁نموذج": 4009,
      "▁الأهلي": 4010,
      "▁القائمة": 4011,
      "ضرورة": 4012,
      "مط": 4013,
      "▁نسب": 4014,
      "امات": 4015,
      "▁تحويل": 4016,
      "▁المشكلة": 4017,
      "َح": 4018,
      "▁العظيم": 4019,
      "▁فرص": 4020,
      "▁أسبوع": 4021,
      "طلع": 4022,
      "▁الاف": 4023,
      "ate": 4024,
      "▁إضاف": 4025,
      "هابية": 4026,
      "▁سورية": 4027,
      "▁سكان": 4028,
      "▁انته": 4029,
      "▁الأزمة": 4030,
      "▁الحال": 4031,
      "ِب": 4032,
      "قاد": 4033,
      "▁مؤشر": 4034,
      "▁الغاز": 4035,
      "▁الأحمر": 4036,
      "▁يجوز": 4037,
      "▁معينة": 4038,
      "▁أرد": 4039,
      "▁التفاصيل": 4040,
      "سو": 4041,
      "▁الصلب": 4042,
      "▁للمر": 4043,
      "وعية": 4044,
      "آت": 4045,
      "▁بحق": 4046,
      "▁حفظ": 4047,
      "▁خيار": 4048,
      "▁الأعلى": 4049,
      "▁عقب": 4050,
      "▁يظهر": 4051,
      "▁صفحة": 4052,
      "▁التركية": 4053,
      "شكل": 4054,
      "▁st": 4055,
      "▁القيا": 4056,
      "▁واف": 4057,
      "▁الحوار": 4058,
      "▁عربية": 4059,
      "▁البريد": 4060,
      "▁خمس": 4061,
      "▁الحالية": 4062,
      "قتها": 4063,
      "▁الأسمنت": 4064,
      "▁الشرقية": 4065,
      "▁حسين": 4066,
      "▁الجلد": 4067,
      "▁واب": 4068,
      "▁والل": 4069,
      "▁اللعبة": 4070,
      "▁سبح": 4071,
      "▁ممن": 4072,
      "هاء": 4073,
      "الكتر": 4074,
      "▁وَال": 4075,
      "▁بمع": 4076,
      "▁الخيار": 4077,
      "▁يرت": 4078,
      "اوز": 4079,
      "باق": 4080,
      "▁طف": 4081,
      "art": 4082,
      "▁يمت": 4083,
      "▁قيام": 4084,
      "لامات": 4085,
      "hat": 4086,
      "▁غال": 4087,
      "عمار": 4088,
      "▁المحافظة": 4089,
      "ديقة": 4090,
      "▁متعددة": 4091,
      "مرة": 4092,
      "▁بعدما": 4093,
      "ائة": 4094,
      "▁بينها": 4095,
      "▁العقل": 4096,
      "رائم": 4097,
      "▁الفع": 4098,
      "**": 4099,
      "▁مصن": 4100,
      "▁ht": 4101,
      "▁ورب": 4102,
      "▁برا": 4103,
      "▁الموظ": 4104,
      "▁لأي": 4105,
      "▁الوزن": 4106,
      "▁فهذا": 4107,
      "كومة": 4108,
      "▁العلمي": 4109,
      "ستي": 4110,
      "▁يز": 4111,
      "▁pro": 4112,
      "▁يعود": 4113,
      "شب": 4114,
      "▁ثانية": 4115,
      "▁يقع": 4116,
      "جون": 4117,
      "▁النز": 4118,
      "▁حص": 4119,
      "▁العراقية": 4120,
      "▁الأردن": 4121,
      "▁لعب": 4122,
      "▁الحالات": 4123,
      "فو": 4124,
      "▁كام": 4125,
      "ant": 4126,
      "▁تبدأ": 4127,
      "▁منح": 4128,
      "▁شرك": 4129,
      "سبوك": 4130,
      "nd": 4131,
      "▁دوري": 4132,
      "rush": 4133,
      "▁معدل": 4134,
      "▁اجتماع": 4135,
      "ؤية": 4136,
      "▁وانت": 4137,
      "▁العلاقة": 4138,
      "▁عشرة": 4139,
      "واح": 4140,
      "▁سؤال": 4141,
      "▁البيئة": 4142,
      "▁الموت": 4143,
      "▁يمثل": 4144,
      "َذ": 4145,
      "يبة": 4146,
      "▁تجعل": 4147,
      "▁الوج": 4148,
      "▁الارت": 4149,
      "▁تعليق": 4150,
      "▁المسلحة": 4151,
      "▁الغذائية": 4152,
      "ظمات": 4153,
      "▁محل": 4154,
      "ثيل": 4155,
      "ائرات": 4156,
      "▁أمريكا": 4157,
      "▁بنك": 4158,
      "وقيت": 4159,
      "iv": 4160,
      "▁المؤمن": 4161,
      "وعي": 4162,
      "▁المنتدى": 4163,
      "درات": 4164,
      "▁الرد": 4165,
      "▁كوم": 4166,
      "▁بطولة": 4167,
      "▁الشريف": 4168,
      "▁الاص": 4169,
      "▁القيادة": 4170,
      "▁المدرسة": 4171,
      "▁مان": 4172,
      "▁ولن": 4173,
      "▁النتائج": 4174,
      "▁الالكتر": 4175,
      "ونها": 4176,
      "َاء": 4177,
      "▁التنظيم": 4178,
      "▁تدخل": 4179,
      "▁المؤسسة": 4180,
      "▁منتدى": 4181,
      "▁نقاط": 4182,
      "▁مجانا": 4183,
      "▁الفيلم": 4184,
      "▁التشغيل": 4185,
      "▁الحقوق": 4186,
      "▁المهم": 4187,
      "▁يط": 4188,
      "يتها": 4189,
      "▁تمر": 4190,
      "▁صار": 4191,
      "▁ومح": 4192,
      "▁فيت": 4193,
      "ريبية": 4194,
      "▁ضغط": 4195,
      "▁أنفس": 4196,
      "▁الاشت": 4197,
      "▁واله": 4198,
      "▁الأميركي": 4199,
      "ضائية": 4200,
      "▁عائ": 4201,
      "▁السياسة": 4202,
      "▁تأتي": 4203,
      "مح": 4204,
      "▁يعلم": 4205,
      "▁الثقافة": 4206,
      "▁de": 4207,
      "▁الأسواق": 4208,
      "▁اللَّ": 4209,
      "غرب": 4210,
      "طوان": 4211,
      "شير": 4212,
      "▁التقرير": 4213,
      "▁الحوث": 4214,
      "▁تحسين": 4215,
      "▁قيم": 4216,
      "فز": 4217,
      "هلك": 4218,
      "▁وأخ": 4219,
      "▁نست": 4220,
      "▁الشعبية": 4221,
      "▁خس": 4222,
      "▁جو": 4223,
      "▁واسعة": 4224,
      "▁http": 4225,
      "▁النوم": 4226,
      "ديدا": 4227,
      "▁إِل": 4228,
      "▁الرسمية": 4229,
      "▁اول": 4230,
      "▁بتن": 4231,
      "▁بصورة": 4232,
      "كمال": 4233,
      "▁حدوث": 4234,
      "▁أربعة": 4235,
      "one": 4236,
      "▁سابق": 4237,
      "▁الدقيقة": 4238,
      "طرح": 4239,
      "▁الحرارة": 4240,
      "روعات": 4241,
      "▁الجد": 4242,
      "▁تمثل": 4243,
      "طلاع": 4244,
      "▁جه": 4245,
      "▁ومست": 4246,
      "لمي": 4247,
      "▁كلية": 4248,
      "▁قيا": 4249,
      "يميا": 4250,
      "سى": 4251,
      "زيا": 4252,
      "▁القوى": 4253,
      "▁عربي": 4254,
      "▁داعش": 4255,
      "كُمْ": 4256,
      "▁الإنسانية": 4257,
      "ائب": 4258,
      "▁الإصابة": 4259,
      "▁تجارة": 4260,
      "صات": 4261,
      "▁جداً": 4262,
      "▁والتعليم": 4263,
      "▁الحج": 4264,
      "▁العودة": 4265,
      "▁يزال": 4266,
      "▁ملم": 4267,
      "▁رائعة": 4268,
      "▁المالي": 4269,
      "▁لموا": 4270,
      "▁اما": 4271,
      "▁سياسة": 4272,
      "▁مكافحة": 4273,
      "هابي": 4274,
      "▁جا": 4275,
      "غلال": 4276,
      "▁الأمة": 4277,
      "▁خمسة": 4278,
      "ّن": 4279,
      "▁الأفضل": 4280,
      "ندية": 4281,
      "▁خرج": 4282,
      "صدر": 4283,
      "▁الفكر": 4284,
      "▁بأس": 4285,
      "▁الإرهاب": 4286,
      "▁الرابع": 4287,
      "▁الكتب": 4288,
      "▁مرات": 4289,
      "وقة": 4290,
      "امر": 4291,
      "قلال": 4292,
      "▁طا": 4293,
      "▁لديهم": 4294,
      "▁مميز": 4295,
      "▁الخض": 4296,
      "وسطة": 4297,
      "▁السؤال": 4298,
      "ob": 4299,
      "قوط": 4300,
      "▁ويست": 4301,
      "▁شباب": 4302,
      "▁الوزير": 4303,
      "ثمارات": 4304,
      "زمات": 4305,
      "▁سعد": 4306,
      "▁تقل": 4307,
      "out": 4308,
      "ist": 4309,
      "▁الفرنسية": 4310,
      "▁أصل": 4311,
      "يدان": 4312,
      "▁طول": 4313,
      "▁أثر": 4314,
      "▁أَن": 4315,
      "▁البرلمان": 4316,
      "▁وأنا": 4317,
      "▁اتخاذ": 4318,
      "▁تعريف": 4319,
      "▁عهد": 4320,
      "▁وقف": 4321,
      "صرة": 4322,
      "▁والان": 4323,
      "▁الشعبي": 4324,
      "▁الأموال": 4325,
      "ont": 4326,
      "▁أجزاء": 4327,
      "▁المحافظ": 4328,
      "▁مهما": 4329,
      "▁استراتيجية": 4330,
      "طى": 4331,
      "▁الحفاظ": 4332,
      "▁فيروس": 4333,
      "▁أدوات": 4334,
      "▁زا": 4335,
      "▁الكاتب": 4336,
      "▁مجانية": 4337,
      "▁اقرأ": 4338,
      "▁الجوية": 4339,
      "▁العلوم": 4340,
      "َّة": 4341,
      "ساطة": 4342,
      "▁جهود": 4343,
      "طيب": 4344,
      "▁أست": 4345,
      "▁شارك": 4346,
      "▁مساحة": 4347,
      "▁الابت": 4348,
      "▁اتصل": 4349,
      "▁يقل": 4350,
      "▁سياسية": 4351,
      "▁الملا": 4352,
      "وطن": 4353,
      "▁مدة": 4354,
      "َمْ": 4355,
      "▁شرح": 4356,
      "▁الكهرباء": 4357,
      "▁بول": 4358,
      "▁طرح": 4359,
      "▁بغداد": 4360,
      "ارف": 4361,
      "▁منصة": 4362,
      "▁ميل": 4363,
      "واجد": 4364,
      "▁حاجة": 4365,
      "▁العص": 4366,
      "▁تغير": 4367,
      "▁منظ": 4368,
      "شية": 4369,
      "ment": 4370,
      "ail": 4371,
      "▁روح": 4372,
      "صنع": 4373,
      "▁الصوت": 4374,
      "ساهم": 4375,
      "▁يوفر": 4376,
      "▁Re": 4377,
      "▁التون": 4378,
      "▁عَلَيْ": 4379,
      "▁قاعدة": 4380,
      "▁اللَّ": 4381,
      "ost": 4382,
      "▁الحلقة": 4383,
      "▁البيان": 4384,
      "▁دقائق": 4385,
      "▁استمرار": 4386,
      "▁المناسبة": 4387,
      "▁التنفيذ": 4388,
      "▁والعمل": 4389,
      "ائص": 4390,
      "كري": 4391,
      "pt": 4392,
      "▁تقريبا": 4393,
      "▁الرم": 4394,
      "أم": 4395,
      "▁معرض": 4396,
      "▁al": 4397,
      "▁الاد": 4398,
      "▁لفت": 4399,
      "▁دائم": 4400,
      "▁اللون": 4401,
      "مرت": 4402,
      "▁الحقيقي": 4403,
      "▁بريط": 4404,
      "ُن": 4405,
      "َك": 4406,
      "غان": 4407,
      "▁الوحيد": 4408,
      "▁ريم": 4409,
      "▁العثور": 4410,
      "▁مدار": 4411,
      "ud": 4412,
      "▁البرو": 4413,
      "ويه": 4414,
      "▁عديدة": 4415,
      "▁المقال": 4416,
      "واز": 4417,
      "▁عرف": 4418,
      "▁والز": 4419,
      "الص": 4420,
      "اضي": 4421,
      "زق": 4422,
      "ثرة": 4423,
      "▁ومنها": 4424,
      "▁أز": 4425,
      "▁وَل": 4426,
      "▁ند": 4427,
      "▁بتاريخ": 4428,
      "▁واشنطن": 4429,
      "ُهُ": 4430,
      "▁الفق": 4431,
      "فعت": 4432,
      "▁رك": 4433,
      "▁يبلغ": 4434,
      "رقام": 4435,
      "▁إجراءات": 4436,
      "▁المشاريع": 4437,
      "▁يوميا": 4438,
      "▁المسلم": 4439,
      "درية": 4440,
      "▁البداية": 4441,
      "▁أفراد": 4442,
      "واة": 4443,
      "▁مقد": 4444,
      "خبار": 4445,
      "▁إعداد": 4446,
      "▁التجاري": 4447,
      "▁مناسبة": 4448,
      "▁استش": 4449,
      "▁موض": 4450,
      "▁}": 4451,
      "▁الذه": 4452,
      "▁فوائد": 4453,
      "▁مساعد": 4454,
      "▁ماكينات": 4455,
      "▁الخرس": 4456,
      "يدة": 4457,
      "▁بأي": 4458,
      "▁يرى": 4459,
      "▁الفوز": 4460,
      "▁المعارضة": 4461,
      "▁اسعار": 4462,
      "▁المدارس": 4463,
      "▁Get": 4464,
      "ضل": 4465,
      "▁ضبط": 4466,
      "▁كلها": 4467,
      "▁ميز": 4468,
      "▁قَالَ": 4469,
      "▁التغ": 4470,
      "▁التعليمية": 4471,
      "ith": 4472,
      "سيط": 4473,
      "طلبات": 4474,
      "ناع": 4475,
      "▁العمليات": 4476,
      "▁السكر": 4477,
      "ماكن": 4478,
      "▁اللهم": 4479,
      "▁ومس": 4480,
      "▁ولذلك": 4481,
      "كمل": 4482,
      "▁وبعض": 4483,
      "بعد": 4484,
      "ُول": 4485,
      "▁يحصل": 4486,
      "ذف": 4487,
      "▁إرسال": 4488,
      "▁المقاومة": 4489,
      "بلوما": 4490,
      "▁يلي": 4491,
      "▁الرسم": 4492,
      "انى": 4493,
      "▁أننا": 4494,
      "درس": 4495,
      "طبيق": 4496,
      "عراض": 4497,
      "▁الحض": 4498,
      "▁علا": 4499,
      "▁وجل": 4500,
      "َةِ": 4501,
      "▁التركي": 4502,
      "▁إعلان": 4503,
      "شروع": 4504,
      "▁الروسية": 4505,
      "فيض": 4506,
      "▁الأشياء": 4507,
      "▁سنت": 4508,
      "▁اللاعبين": 4509,
      "▁السياحة": 4510,
      "▁الرج": 4511,
      "نه": 4512,
      "بك": 4513,
      "▁واسع": 4514,
      "▁شروط": 4515,
      "▁والمؤ": 4516,
      "▁مياه": 4517,
      "بادئ": 4518,
      "رافي": 4519,
      "▁تحرير": 4520,
      "كلات": 4521,
      "▁انخفاض": 4522,
      "▁المكت": 4523,
      "طع": 4524,
      "ver": 4525,
      "▁الست": 4526,
      "ريحة": 4527,
      "▁الاش": 4528,
      "▁لين": 4529,
      "▁اث": 4530,
      "▁حياته": 4531,
      "ناسبة": 4532,
      "ie": 4533,
      "مكان": 4534,
      "▁AM": 4535,
      "▁النات": 4536,
      "▁الأحداث": 4537,
      "▁منز": 4538,
      "▁ملايين": 4539,
      "▁كوب": 4540,
      "▁الخص": 4541,
      "▁البرا": 4542,
      "▁تسبب": 4543,
      "ph": 4544,
      "▁وقع": 4545,
      "احات": 4546,
      "اول": 4547,
      "▁قيادة": 4548,
      "▁القادم": 4549,
      "▁المفت": 4550,
      "▁الدراسات": 4551,
      "▁الأسد": 4552,
      "▁الليل": 4553,
      "وظيف": 4554,
      "ضير": 4555,
      "▁نسخة": 4556,
      "فعيل": 4557,
      "▁تشمل": 4558,
      "▁قاد": 4559,
      "وائل": 4560,
      "▁ملابس": 4561,
      "age": 4562,
      "▁نب": 4563,
      "▁البار": 4564,
      "▁واضح": 4565,
      "▁تجاوز": 4566,
      "▁اخر": 4567,
      "▁باك": 4568,
      "▁الأستاذ": 4569,
      "هوم": 4570,
      "▁تصريح": 4571,
      "▁تمن": 4572,
      "حتاج": 4573,
      "▁حملة": 4574,
      "قيام": 4575,
      "▁_": 4576,
      "▁مشاريع": 4577,
      "▁صدر": 4578,
      "▁وأس": 4579,
      "▁نور": 4580,
      "هوة": 4581,
      "▁قت": 4582,
      "▁تجهيز": 4583,
      "▁تبحث": 4584,
      "ختار": 4585,
      "▁الغرب": 4586,
      "▁سطح": 4587,
      "▁تي": 4588,
      "صيد": 4589,
      "▁فكان": 4590,
      "▁وفر": 4591,
      "َج": 4592,
      "▁قلت": 4593,
      "▁وسل": 4594,
      "وصول": 4595,
      "▁أربع": 4596,
      "▁هام": 4597,
      "▁الزواج": 4598,
      "ـ\"\"": 4599,
      "▁مسب": 4600,
      "ity": 4601,
      "باه": 4602,
      "طوانة": 4603,
      "▁الأراضي": 4604,
      "▁بْن": 4605,
      "▁بعمل": 4606,
      "▁أزمة": 4607,
      "▁المنظمة": 4608,
      "▁بز": 4609,
      "▁درج": 4610,
      "▁قب": 4611,
      "▁فم": 4612,
      "▁صحي": 4613,
      "▁كريم": 4614,
      "▁ويح": 4615,
      "فيذي": 4616,
      "ارقة": 4617,
      "▁الاجتماع": 4618,
      "التزام": 4619,
      "▁i": 4620,
      "▁جمعية": 4621,
      "▁ضرب": 4622,
      "▁خطر": 4623,
      "▁الكون": 4624,
      "▁للأس": 4625,
      "▁جاه": 4626,
      "▁عباس": 4627,
      "▁تواجه": 4628,
      "مَا": 4629,
      "جمات": 4630,
      "▁المدن": 4631,
      "جتمع": 4632,
      "▁أحداث": 4633,
      "▁والمست": 4634,
      "روي": 4635,
      "▁منتخب": 4636,
      "▁بأنها": 4637,
      "▁العاب": 4638,
      "▁الاتجاه": 4639,
      "▁الفرد": 4640,
      "▁الروسي": 4641,
      "شى": 4642,
      "▁فور": 4643,
      "▁أين": 4644,
      "▁كتابة": 4645,
      "▁مجلة": 4646,
      "▁المتوسط": 4647,
      "▁البا": 4648,
      "يوم": 4649,
      "▁اليهود": 4650,
      "هو": 4651,
      "▁أولا": 4652,
      "أكيد": 4653,
      "▁وظيفة": 4654,
      "▁أعرف": 4655,
      "▁اخرى": 4656,
      "الق": 4657,
      "▁شاء": 4658,
      "▁ممارسة": 4659,
      "▁مسلم": 4660,
      "ach": 4661,
      "▁ففي": 4662,
      "▁الخير": 4663,
      "قاذ": 4664,
      "▁شاشة": 4665,
      "وذ": 4666,
      "▁بكر": 4667,
      "َاب": 4668,
      "سيت": 4669,
      "▁المشاكل": 4670,
      "بحاث": 4671,
      "▁شهادة": 4672,
      "وجل": 4673,
      "▁الواحد": 4674,
      "▁وتج": 4675,
      "▁والاج": 4676,
      "سجيل": 4677,
      "▁شبه": 4678,
      "▁ولكنه": 4679,
      "▁كمية": 4680,
      "فد": 4681,
      "▁استخدم": 4682,
      "▁وتد": 4683,
      "].": 4684,
      "راعة": 4685,
      "بعاد": 4686,
      "▁الظروف": 4687,
      "▁المسجد": 4688,
      "▁اند": 4689,
      "▁الجزيرة": 4690,
      "▁X": 4691,
      "▁دمشق": 4692,
      "▁باعتبار": 4693,
      "دافع": 4694,
      "▁الوس": 4695,
      "▁صندوق": 4696,
      "▁التغيير": 4697,
      "▁تقييم": 4698,
      "▁الصينية": 4699,
      "جرى": 4700,
      "iz": 4701,
      "▁الحاجة": 4702,
      "فاوضات": 4703,
      "▁الأمراض": 4704,
      "▁از": 4705,
      "▁إمكانية": 4706,
      "َه": 4707,
      "▁الإسرائيلية": 4708,
      "▁مال": 4709,
      "▁الجنوبية": 4710,
      "▁كله": 4711,
      "▁نجد": 4712,
      "ليمية": 4713,
      "غطية": 4714,
      "▁الواق": 4715,
      "الإ": 4716,
      "ect": 4717,
      "▁طوال": 4718,
      "ube": 4719,
      "▁النائب": 4720,
      "▁النب": 4721,
      "جية": 4722,
      "▁لأول": 4723,
      "▁الأرب": 4724,
      "ِد": 4725,
      "▁التحكم": 4726,
      "▁فس": 4727,
      "ثال": 4728,
      "▁اللبنانية": 4729,
      "▁الطبيب": 4730,
      "▁إعلام": 4731,
      "▁الصحيح": 4732,
      "▁إصدار": 4733,
      "▁الملابس": 4734,
      "قصى": 4735,
      "▁معنا": 4736,
      "▁مرور": 4737,
      "▁by": 4738,
      "▁القانونية": 4739,
      "▁معين": 4740,
      "▁وتص": 4741,
      "▁سلمان": 4742,
      "▁لكنها": 4743,
      "ies": 4744,
      "اهد": 4745,
      "▁تشرين": 4746,
      "ندن": 4747,
      "▁هى": 4748,
      "▁جر": 4749,
      "▁يبدأ": 4750,
      "ذل": 4751,
      "جليزي": 4752,
      "▁الدولار": 4753,
      "▁مخروطية": 4754,
      "▁القي": 4755,
      "▁التكنولوجيا": 4756,
      "روري": 4757,
      "▁بسهولة": 4758,
      "سيقى": 4759,
      "▁العالي": 4760,
      "▁انف": 4761,
      "▁وترك": 4762,
      "واطن": 4763,
      "▁عاد": 4764,
      "▁قائلا": 4765,
      "▁بلغت": 4766,
      "مالك": 4767,
      "▁وفاة": 4768,
      "▁مدريد": 4769,
      "▁للتن": 4770,
      "▁دائرة": 4771,
      "▁والسيا": 4772,
      "▁أدى": 4773,
      "▁مصطفى": 4774,
      "▁الدينية": 4775,
      "▁الرياضة": 4776,
      "▁الطحن": 4777,
      "نيين": 4778,
      "▁ناصر": 4779,
      "▁Ar": 4780,
      "▁بالص": 4781,
      "وسع": 4782,
      "وارع": 4783,
      "▁الكهربائية": 4784,
      "▁كهرب": 4785,
      "باك": 4786,
      "▁إر": 4787,
      "▁الممت": 4788,
      "▁بعيد": 4789,
      "▁التجار": 4790,
      "▁اليم": 4791,
      "▁البحرين": 4792,
      "أكد": 4793,
      "▁البشرة": 4794,
      "▁النهاية": 4795,
      "▁المستثمر": 4796,
      "▁يحب": 4797,
      "▁الحجارة": 4798,
      "▁صلاح": 4799,
      "▁ثابت": 4800,
      "▁بعدها": 4801,
      "▁التمو": 4802,
      "▁عاج": 4803,
      "▁الأساسي": 4804,
      "اليب": 4805,
      "خلق": 4806,
      "▁البريطانية": 4807,
      "ly": 4808,
      "▁الوحدة": 4809,
      "تمعات": 4810,
      "▁تصريحات": 4811,
      "▁غسل": 4812,
      "▁وبد": 4813,
      "▁الديمقراطية": 4814,
      "ثمان": 4815,
      "▁الشرعية": 4816,
      "▁والمس": 4817,
      "▁الهلال": 4818,
      "▁Price": 4819,
      "▁سام": 4820,
      "▁النجاح": 4821,
      "ائها": 4822,
      "َرْ": 4823,
      "▁ومؤ": 4824,
      "▁اعتبار": 4825,
      "▁النظ": 4826,
      "داخل": 4827,
      "▁ليلة": 4828,
      "▁المكتب": 4829,
      "▁ذه": 4830,
      "▁المهمة": 4831,
      "ئت": 4832,
      "▁سيما": 4833,
      "▁الرسول": 4834,
      "ترض": 4835,
      "ورها": 4836,
      "▁مضي": 4837,
      "▁يدخل": 4838,
      "▁وتر": 4839,
      "▁كبيرا": 4840,
      "▁جاءت": 4841,
      "▁سأ": 4842,
      "▁إنما": 4843,
      "هلاك": 4844,
      "▁سبحانه": 4845,
      "زر": 4846,
      "ex": 4847,
      "▁البيع": 4848,
      "▁تزال": 4849,
      "▁قطعة": 4850,
      "ذاب": 4851,
      "صدقاء": 4852,
      "قامة": 4853,
      "روفة": 4854,
      "▁لز": 4855,
      "▁نقدم": 4856,
      "▁تعديل": 4857,
      "▁المذك": 4858,
      "▁هن": 4859,
      "▁المهنية": 4860,
      "▁فلم": 4861,
      "▁وعندما": 4862,
      "▁بالض": 4863,
      "▁العدد": 4864,
      "▁الفساد": 4865,
      "▁الإيراني": 4866,
      "▁الخامس": 4867,
      "▁فج": 4868,
      "ass": 4869,
      "▁بوك": 4870,
      "▁وجاء": 4871,
      "▁اللواء": 4872,
      "وهات": 4873,
      "▁لعام": 4874,
      "▁توص": 4875,
      "▁كلمات": 4876,
      "▁الإعلان": 4877,
      "ضرار": 4878,
      "ترات": 4879,
      "▁دورة": 4880,
      "▁السير": 4881,
      "▁مستويات": 4882,
      "▁مؤكدا": 4883,
      "احت": 4884,
      "▁جام": 4885,
      "ive": 4886,
      "وسة": 4887,
      "▁مجتمع": 4888,
      "▁نفسك": 4889,
      "▁بحاجة": 4890,
      "وظبي": 4891,
      "▁حضر": 4892,
      "▁الحجم": 4893,
      "يله": 4894,
      "طلقت": 4895,
      "واه": 4896,
      "لقى": 4897,
      "لاجئين": 4898,
      "▁ترى": 4899,
      "▁بيد": 4900,
      "▁شيئا": 4901,
      "▁منش": 4902,
      "▁بالله": 4903,
      "▁متنوعة": 4904,
      "▁المطلوب": 4905,
      "▁عَنْ": 4906,
      "▁ذاته": 4907,
      "سع": 4908,
      "▁=": 4909,
      "▁بمدينة": 4910,
      "▁الضوء": 4911,
      "▁القت": 4912,
      "كرر": 4913,
      "▁الدستور": 4914,
      "▁القضايا": 4915,
      "▁تهتز": 4916,
      "▁القسم": 4917,
      "ريقية": 4918,
      "▁ناحية": 4919,
      "▁وأنه": 4920,
      "▁Sh": 4921,
      "واتف": 4922,
      "▁المهدي": 4923,
      "▁الرأي": 4924,
      "▁فضلا": 4925,
      "ريج": 4926,
      "ائري": 4927,
      "▁امام": 4928,
      "▁تحليل": 4929,
      "ِع": 4930,
      "▁إِن": 4931,
      "▁جماعة": 4932,
      "▁اليومية": 4933,
      "▁فق": 4934,
      "▁بطاقة": 4935,
      "طاع": 4936,
      "▁توقع": 4937,
      "▁مدرسة": 4938,
      "زون": 4939,
      "ite": 4940,
      "▁المعرفة": 4941,
      "ربين": 4942,
      "▁السيطرة": 4943,
      "▁اختبار": 4944,
      "▁وكأن": 4945,
      "▁انتهاء": 4946,
      "وليد": 4947,
      "نون": 4948,
      "▁معهم": 4949,
      "▁الأكبر": 4950,
      "▁الته": 4951,
      "▁عبدالعزيز": 4952,
      "رويج": 4953,
      "عوبة": 4954,
      "كندرية": 4955,
      "▁خطوة": 4956,
      "كلف": 4957,
      "▁الأسرة": 4958,
      "▁تشكل": 4959,
      "▁يصبح": 4960,
      "الس": 4961,
      "▁فكية": 4962,
      "▁الحسن": 4963,
      "▁جيدا": 4964,
      "▁موسى": 4965,
      "▁البطولة": 4966,
      "ارض": 4967,
      "▁برج": 4968,
      "▁الشمالية": 4969,
      "▁تحقق": 4970,
      "▁اتحاد": 4971,
      "صحاب": 4972,
      "▁ويد": 4973,
      "▁التنفيذي": 4974,
      "▁مرك": 4975,
      "ديمية": 4976,
      "▁انتاج": 4977,
      "▁غر": 4978,
      "▁أطفال": 4979,
      "▁المهندس": 4980,
      "▁اك": 4981,
      "▁عما": 4982,
      "▁صلاة": 4983,
      "ّي": 4984,
      "وضاع": 4985,
      "▁بوت": 4986,
      "ews": 4987,
      "▁قرب": 4988,
      "برنامج": 4989,
      "▁أخر": 4990,
      "جميل": 4991,
      "▁الأعضاء": 4992,
      "▁اهتمام": 4993,
      "▁كبار": 4994,
      "▁إقامة": 4995,
      "▁ويقول": 4996,
      "وائية": 4997,
      "ابون": 4998,
      "ذيب": 4999,
      "▁بض": 5000,
      "▁جائزة": 5001,
      "▁وصلت": 5002,
      "▁خصوصا": 5003,
      "سيوم": 5004,
      "▁تحصل": 5005,
      "عله": 5006,
      "▁حاج": 5007,
      "▁الأحيان": 5008,
      "▁ترغب": 5009,
      "ْع": 5010,
      "هاجم": 5011,
      "▁وسوف": 5012,
      "▁التحالف": 5013,
      "نج": 5014,
      "▁الجنوب": 5015,
      "▁بالكامل": 5016,
      "باحث": 5017,
      "▁والمح": 5018,
      "▁المعدنية": 5019,
      "▁نح": 5020,
      "▁المغربي": 5021,
      "مام": 5022,
      "▁الاخبار": 5023,
      "▁مكة": 5024,
      "كره": 5025,
      "أتي": 5026,
      "▁us": 5027,
      "▁القيمة": 5028,
      "▁مواطن": 5029,
      "طنة": 5030,
      "رافية": 5031,
      "وحدة": 5032,
      "نوان": 5033,
      "▁مستقبل": 5034,
      "حقوق": 5035,
      "قيات": 5036,
      "▁تجمع": 5037,
      "▁فرق": 5038,
      "▁عَلَى": 5039,
      "▁ويع": 5040,
      "▁بسيطة": 5041,
      "ابيع": 5042,
      "▁بري": 5043,
      "▁اجل": 5044,
      "▁السينما": 5045,
      "▁ونت": 5046,
      "▁الأسنان": 5047,
      "▁لون": 5048,
      "▁الصحفي": 5049,
      "شلونة": 5050,
      "▁الخل": 5051,
      "وأ": 5052,
      "كتاب": 5053,
      "▁يض": 5054,
      "إِن": 5055,
      "▁الساح": 5056,
      "▁صاد": 5057,
      "▁واضحة": 5058,
      "▁حاول": 5059,
      "▁لتر": 5060,
      "▁مالية": 5061,
      "بيد": 5062,
      "زيارة": 5063,
      "▁وأف": 5064,
      "▁توزيع": 5065,
      "▁ترت": 5066,
      "▁شم": 5067,
      "▁لاين": 5068,
      "▁الأوروبية": 5069,
      "▁الدفع": 5070,
      "▁نفسي": 5071,
      "▁حلول": 5072,
      "▁المدنية": 5073,
      "▁المحجر": 5074,
      "سه": 5075,
      "▁محكمة": 5076,
      "▁ذو": 5077,
      "▁ماي": 5078,
      "▁التقنية": 5079,
      "▁مَا": 5080,
      "▁سورة": 5081,
      "وحات": 5082,
      "انوني": 5083,
      "▁وتابع": 5084,
      "▁كنا": 5085,
      "▁فندق": 5086,
      "لفت": 5087,
      "خير": 5088,
      "▁اتجاه": 5089,
      "▁اللبناني": 5090,
      "▁اون": 5091,
      "▁فهل": 5092,
      "لول": 5093,
      "لو": 5094,
      "ريقي": 5095,
      "نيسة": 5096,
      "وداء": 5097,
      "▁عروض": 5098,
      "▁رائع": 5099,
      "▁يبحث": 5100,
      "▁You": 5101,
      "▁المتوقع": 5102,
      "▁تعود": 5103,
      "▁المشترك": 5104,
      "▁أموال": 5105,
      "▁الثقيلة": 5106,
      "نساء": 5107,
      "▁الاستخدام": 5108,
      "يسى": 5109,
      "▁العا": 5110,
      "َّا": 5111,
      "راتيجيات": 5112,
      "▁لصالح": 5113,
      "غات": 5114,
      "▁مراكز": 5115,
      "▁تويتر": 5116,
      "فرة": 5117,
      "▁لوحة": 5118,
      "▁j": 5119,
      "▁النشاط": 5120,
      "تمال": 5121,
      "▁المغربية": 5122,
      "▁النهائي": 5123,
      "▁الصيف": 5124,
      "ئك": 5125,
      "▁عودة": 5126,
      "▁التحقيق": 5127,
      "▁حلم": 5128,
      "▁طر": 5129,
      "ملت": 5130,
      "▁العاملين": 5131,
      "▁سياسي": 5132,
      "انس": 5133,
      "▁مين": 5134,
      "▁سرعة": 5135,
      "عدم": 5136,
      "دن": 5137,
      "▁منخفض": 5138,
      "▁تعتمد": 5139,
      "يص": 5140,
      "▁عصر": 5141,
      "▁ده": 5142,
      "▁الاهتمام": 5143,
      "▁التض": 5144,
      "▁More": 5145,
      "ترح": 5146,
      "▁السادس": 5147,
      "▁التدريب": 5148,
      "بارات": 5149,
      "▁ملفات": 5150,
      "▁خطوات": 5151,
      "▁التاس": 5152,
      "▁الخرسانة": 5153,
      "▁إزالة": 5154,
      "▁ذهب": 5155,
      "▁مناسب": 5156,
      "باعة": 5157,
      "ساط": 5158,
      "▁تعب": 5159,
      "ياط": 5160,
      "▁التحرير": 5161,
      "▁تابع": 5162,
      "▁بالمن": 5163,
      "ast": 5164,
      "▁المصادر": 5165,
      "▁بينهما": 5166,
      "pl": 5167,
      "▁والمع": 5168,
      "▁الجولة": 5169,
      "▁وهل": 5170,
      "▁متوسط": 5171,
      "▁الآية": 5172,
      "▁التب": 5173,
      "واك": 5174,
      "ئل": 5175,
      "▁لغة": 5176,
      "▁صيانة": 5177,
      "rom": 5178,
      "فيق": 5179,
      "▁تخص": 5180,
      "زز": 5181,
      "▁والآ": 5182,
      "▁يسمح": 5183,
      "▁طويل": 5184,
      "وحيد": 5185,
      "▁قائد": 5186,
      "يانة": 5187,
      "نز": 5188,
      "▁إِ": 5189,
      "▁المخاطر": 5190,
      "▁التفكير": 5191,
      "▁تركيب": 5192,
      "▁مأ": 5193,
      "▁متابعة": 5194,
      "▁إت": 5195,
      "▁المقدمة": 5196,
      "▁الأسود": 5197,
      "▁المتنقلة": 5198,
      "▁منك": 5199,
      "▁الإسب": 5200,
      "تان": 5201,
      "▁رحلة": 5202,
      "▁سليمان": 5203,
      "▁امرأة": 5204,
      "▁كانون": 5205,
      "▁الموارد": 5206,
      "▁الال": 5207,
      "▁كأ": 5208,
      "علومات": 5209,
      "رجال": 5210,
      "عدل": 5211,
      "▁;": 5212,
      "▁الفعل": 5213,
      "▁يشعر": 5214,
      "▁at": 5215,
      "▁فوز": 5216,
      "فيدة": 5217,
      "لفزيون": 5218,
      "ينه": 5219,
      "▁البحرية": 5220,
      "جنب": 5221,
      "▁قرية": 5222,
      "▁أُ": 5223,
      "ain": 5224,
      "كاني": 5225,
      "▁أساسي": 5226,
      "ماعيل": 5227,
      "▁الميز": 5228,
      "▁الصناعة": 5229,
      "▁نو": 5230,
      "▁لتش": 5231,
      "▁Ch": 5232,
      "▁تضم": 5233,
      "▁والات": 5234,
      "▁دعا": 5235,
      "▁حضور": 5236,
      "▁الداخلي": 5237,
      "▁أحب": 5238,
      "▁?": 5239,
      "▁انواع": 5240,
      "act": 5241,
      "▁US": 5242,
      "َار": 5243,
      "زايد": 5244,
      "ابين": 5245,
      "▁العناصر": 5246,
      "▁الحرية": 5247,
      "▁آثار": 5248,
      "▁يعتمد": 5249,
      "ماك": 5250,
      "ختيار": 5251,
      "بكات": 5252,
      "▁لابد": 5253,
      "▁حفل": 5254,
      "▁البخ": 5255,
      "واني": 5256,
      "▁المطب": 5257,
      "▁خلاف": 5258,
      "اضر": 5259,
      "▁مباريات": 5260,
      "”.": 5261,
      "▁الموقف": 5262,
      "▁والمر": 5263,
      "▁الأسباب": 5264,
      "▁مبدأ": 5265,
      "▁الأداء": 5266,
      "ضاع": 5267,
      "سالة": 5268,
      "▁نن": 5269,
      "▁]": 5270,
      "راوح": 5271,
      "▁تقنية": 5272,
      "▁الرابط": 5273,
      "٠٠": 5274,
      "▁الإخوان": 5275,
      "▁كلم": 5276,
      "▁بعضها": 5277,
      "▁السيسي": 5278,
      "▁الثلاثة": 5279,
      "▁مقاط": 5280,
      "▁عسكرية": 5281,
      "فيفة": 5282,
      "▁مطار": 5283,
      "▁العقد": 5284,
      "▁السكن": 5285,
      "ard": 5286,
      "▁الألعاب": 5287,
      "▁السكان": 5288,
      "▁تشير": 5289,
      "جهود": 5290,
      "▁الإيج": 5291,
      "▁تنزيل": 5292,
      "شرق": 5293,
      "▁لمع": 5294,
      "طورة": 5295,
      "▁الصهي": 5296,
      "▁تبلغ": 5297,
      "قيب": 5298,
      "▁الشارع": 5299,
      "وّ": 5300,
      "راكة": 5301,
      "▁المشتركة": 5302,
      "▁الكامل": 5303,
      "▁قواعد": 5304,
      "▁الخصوص": 5305,
      "▁ماليزيا": 5306,
      "▁أراد": 5307,
      "▁تسوق": 5308,
      "قوله": 5309,
      "َلِ": 5310,
      "▁عمرو": 5311,
      "▁المتهم": 5312,
      "▁مؤخرا": 5313,
      "▁الإثنين": 5314,
      "▁إصابة": 5315,
      "شيد": 5316,
      "▁العهد": 5317,
      "ودا": 5318,
      "▁بيروت": 5319,
      "▁يحي": 5320,
      "ائحة": 5321,
      "وزيع": 5322,
      "▁وأكثر": 5323,
      "▁قادر": 5324,
      "▁يؤكد": 5325,
      "▁الشكل": 5326,
      "صفح": 5327,
      "▁المجالات": 5328,
      "▁قضايا": 5329,
      "وانب": 5330,
      "▁بدلا": 5331,
      "▁العصر": 5332,
      "َرَ": 5333,
      "ويب": 5334,
      "▁مسئ": 5335,
      "فرد": 5336,
      "▁والسل": 5337,
      "▁جدة": 5338,
      "▁إلكتر": 5339,
      "▁هكذا": 5340,
      "▁مجاني": 5341,
      "▁‫": 5342,
      "▁والسلام": 5343,
      "▁بالغ": 5344,
      "▁ضعف": 5345,
      "▁مول": 5346,
      "▁الجمهور": 5347,
      "▁باريس": 5348,
      "حايا": 5349,
      "▁التصميم": 5350,
      "▁البلدان": 5351,
      "ذى": 5352,
      "▁قصيرة": 5353,
      "▁مخطط": 5354,
      "▁منتصف": 5355,
      "▁المعروف": 5356,
      "▁الملفات": 5357,
      "دمير": 5358,
      "وته": 5359,
      "ميلة": 5360,
      "▁القراءة": 5361,
      "▁علاقات": 5362,
      "▁نقص": 5363,
      "▁الاقت": 5364,
      "▁ضم": 5365,
      "):": 5366,
      "▁تزيد": 5367,
      "▁بالقرب": 5368,
      "ack": 5369,
      "ريبي": 5370,
      "▁القديم": 5371,
      "▁تتضمن": 5372,
      "▁الاتصالات": 5373,
      "▁إما": 5374,
      "▁عَلَيْهِ": 5375,
      "▁صب": 5376,
      "▁قليل": 5377,
      "▁يحاول": 5378,
      "زع": 5379,
      "▁الشت": 5380,
      "▁تراجع": 5381,
      "▁الذكية": 5382,
      "▁بفضل": 5383,
      "▁توجيه": 5384,
      "▁ثاني": 5385,
      "ابا": 5386,
      "ربط": 5387,
      "▁صرف": 5388,
      "▁Q": 5389,
      "▁.\"": 5390,
      "▁للات": 5391,
      "▁لندن": 5392,
      "َّا": 5393,
      "▁مثلا": 5394,
      "▁يشكل": 5395,
      "يان": 5396,
      "▁تعيين": 5397,
      "▁أشخاص": 5398,
      "▁كري": 5399,
      "▁أسماء": 5400,
      "▁ملعب": 5401,
      "علوم": 5402,
      "▁بعنوان": 5403,
      "▁الذاتية": 5404,
      "▁غيره": 5405,
      "▁علماء": 5406,
      "▁مستشفى": 5407,
      "سانية": 5408,
      "ملكة": 5409,
      "ضعف": 5410,
      "▁الصباح": 5411,
      "▁دينار": 5412,
      "▁الافت": 5413,
      "▁محجر": 5414,
      "▁سلم": 5415,
      "▁للمست": 5416,
      "الن": 5417,
      "▁آسيا": 5418,
      "▁جميعا": 5419,
      "شري": 5420,
      "▁توجه": 5421,
      "ran": 5422,
      "▁جميل": 5423,
      "▁وأح": 5424,
      "▁غياب": 5425,
      "▁مالك": 5426,
      "▁السما": 5427,
      "شفيات": 5428,
      "▁ابو": 5429,
      "se": 5430,
      "▁الأمين": 5431,
      "▁بريطانيا": 5432,
      "per": 5433,
      "▁وربما": 5434,
      "▁أصدر": 5435,
      "غرة": 5436,
      "ust": 5437,
      "▁الثانوية": 5438,
      "▁ظروف": 5439,
      "▁صل": 5440,
      "▁الرسالة": 5441,
      "وجة": 5442,
      "▁طفل": 5443,
      "▁تصبح": 5444,
      "▁يعاني": 5445,
      "خمة": 5446,
      "يفون": 5447,
      "▁لبعض": 5448,
      "▁جريدة": 5449,
      "▁سان": 5450,
      "رائب": 5451,
      "يقة": 5452,
      "لبة": 5453,
      "▁المسلسل": 5454,
      "df": 5455,
      "▁البلدين": 5456,
      "خط": 5457,
      "غو": 5458,
      "مكن": 5459,
      "▁الخروج": 5460,
      "▁جلسة": 5461,
      "▁النشر": 5462,
      "▁الانتخ": 5463,
      "af": 5464,
      "▁ويش": 5465,
      "▁التقدم": 5466,
      "▁الخطوة": 5467,
      "▁العنف": 5468,
      "▁الطالب": 5469,
      "▁المدر": 5470,
      "▁الأطراف": 5471,
      "امه": 5472,
      "مى": 5473,
      "▁التاريخية": 5474,
      "غوط": 5475,
      "ينيا": 5476,
      "▁بعدم": 5477,
      "▁يجري": 5478,
      "▁الفلسطينيين": 5479,
      "▁لمح": 5480,
      "▁احمد": 5481,
      "▁أية": 5482,
      "▁الكشف": 5483,
      "ِ،": 5484,
      "ورج": 5485,
      "▁ووف": 5486,
      "زاز": 5487,
      "▁الحيوانات": 5488,
      "▁درجات": 5489,
      "▁وذ": 5490,
      "▁تشهد": 5491,
      "▁المطلوبة": 5492,
      "▁خطوط": 5493,
      "▁لعمل": 5494,
      "▁الشيء": 5495,
      "▁فحص": 5496,
      "▁حض": 5497,
      "▁التخلص": 5498,
      "▁بعضهم": 5499,
      "ord": 5500,
      "واريخ": 5501,
      "▁قرارات": 5502,
      "▁النه": 5503,
      "▁com": 5504,
      "▁والاجتما": 5505,
      "َيْن": 5506,
      "▁يعتقد": 5507,
      "▁تؤدي": 5508,
      "▁الرابعة": 5509,
      "▁العالية": 5510,
      "شاب": 5511,
      "▁مسل": 5512,
      "▁عرب": 5513,
      "▁إسلام": 5514,
      "▁ووضع": 5515,
      "▁استخراج": 5516,
      "▁مبارك": 5517,
      "▁ويل": 5518,
      "▁إج": 5519,
      "▁الخس": 5520,
      "aw": 5521,
      "▁يملك": 5522,
      "▁وعدد": 5523,
      "ستراليا": 5524,
      "▁نظرا": 5525,
      "▁الإب": 5526,
      "اتنا": 5527,
      "▁الثقة": 5528,
      "وادث": 5529,
      "ندات": 5530,
      "ear": 5531,
      "▁الطيران": 5532,
      "▁an": 5533,
      "▁تطبيقات": 5534,
      "َلَّ": 5535,
      "▁مبلغ": 5536,
      "▁الرأس": 5537,
      "▁رحمه": 5538,
      "▁اه": 5539,
      "▁لتس": 5540,
      "▁ستة": 5541,
      "▁السابع": 5542,
      "يراد": 5543,
      "▁ولل": 5544,
      "▁المدى": 5545,
      "▁سري": 5546,
      "▁أض": 5547,
      "----": 5548,
      "▁التركيز": 5549,
      "▁برشلونة": 5550,
      "ian": 5551,
      "▁الفائ": 5552,
      "▁التطبيقات": 5553,
      "▁الإيط": 5554,
      "طرف": 5555,
      "طنا": 5556,
      "▁الانق": 5557,
      "ثبت": 5558,
      "▁جون": 5559,
      "▁بالتعاون": 5560,
      "زايا": 5561,
      "▁تواصل": 5562,
      "▁المطاحن": 5563,
      "▁بقيمة": 5564,
      "▁بكثير": 5565,
      "▁حمد": 5566,
      "▁القومي": 5567,
      "▁رواية": 5568,
      "▁ويجب": 5569,
      "▁كندا": 5570,
      "فف": 5571,
      "▁كشفت": 5572,
      "▁ومر": 5573,
      "▁متى": 5574,
      "▁والض": 5575,
      "هى": 5576,
      "▁الملكية": 5577,
      "▁ولكنها": 5578,
      "▁الفندق": 5579,
      "▁الاعلام": 5580,
      "فير": 5581,
      "▁النباتات": 5582,
      "ناسب": 5583,
      "▁الجهود": 5584,
      "▁المقرر": 5585,
      "▁بتوقيت": 5586,
      "▁لشركة": 5587,
      "▁تتعلق": 5588,
      "▁مجالات": 5589,
      "▁قليلة": 5590,
      "▁وَأ": 5591,
      "كرم": 5592,
      "▁وبر": 5593,
      "تام": 5594,
      "جيع": 5595,
      "جهات": 5596,
      "▁طبيعي": 5597,
      "▁يقت": 5598,
      "اطئ": 5599,
      "▁الجامعات": 5600,
      "طاقات": 5601,
      "▁الكو": 5602,
      "جري": 5603,
      "▁وو": 5604,
      "▁الانسان": 5605,
      "ومان": 5606,
      "ide": 5607,
      "تة": 5608,
      "▁الجبس": 5609,
      "شيات": 5610,
      "▁الأسطوانة": 5611,
      "يسيا": 5612,
      "▁البيضاء": 5613,
      "▁يعت": 5614,
      "نك": 5615,
      "▁القاعدة": 5616,
      "▁الحمد": 5617,
      "َام": 5618,
      "▁جوجل": 5619,
      "يي": 5620,
      "pr": 5621,
      "▁السياحية": 5622,
      "▁يجد": 5623,
      "▁بقوة": 5624,
      "end": 5625,
      "ويورك": 5626,
      "ّى": 5627,
      "راس": 5628,
      "▁فار": 5629,
      "ينو": 5630,
      "▁افتتاح": 5631,
      "▁الآلات": 5632,
      "▁الصانع": 5633,
      "▁وارت": 5634,
      "▁الإطلاق": 5635,
      "طلا": 5636,
      "▁اتصال": 5637,
      "▁be": 5638,
      "▁مصالح": 5639,
      "ai": 5640,
      "▁شهدت": 5641,
      "▁للأطفال": 5642,
      "▁أون": 5643,
      "▁أى": 5644,
      "يراً": 5645,
      "▁الجنسية": 5646,
      "نيه": 5647,
      "▁كأن": 5648,
      "▁جسم": 5649,
      "▁انق": 5650,
      "▁المسيح": 5651,
      "▁استخدامها": 5652,
      "▁أشكال": 5653,
      "▁مفهوم": 5654,
      "الفة": 5655,
      "هران": 5656,
      "ليون": 5657,
      "ماغ": 5658,
      "▁سما": 5659,
      "▁الجرانيت": 5660,
      "▁البع": 5661,
      "▁الاسم": 5662,
      "قاش": 5663,
      "قيمين": 5664,
      "▁اليه": 5665,
      "▁التزام": 5666,
      "▁كيلو": 5667,
      "▁كف": 5668,
      "جنبي": 5669,
      "▁ثالث": 5670,
      "تيال": 5671,
      "▁العدل": 5672,
      "▁مراحل": 5673,
      "▁حزيران": 5674,
      "▁قرر": 5675,
      "هان": 5676,
      "صابات": 5677,
      "▁الموردين": 5678,
      "▁وجدت": 5679,
      "نها": 5680,
      "غار": 5681,
      "▁يلت": 5682,
      "صير": 5683,
      "▁ذوي": 5684,
      "▁البنوك": 5685,
      "▁الملكي": 5686,
      "فيديو": 5687,
      "وفرة": 5688,
      "▁تدفق": 5689,
      "▁متجر": 5690,
      "▁قوي": 5691,
      "▁إنجاز": 5692,
      "▁الثقافية": 5693,
      "▁المباشر": 5694,
      "▁المرور": 5695,
      "▁يسمى": 5696,
      "▁كلما": 5697,
      "▁العمال": 5698,
      "▁ورئيس": 5699,
      "▁بحضور": 5700,
      "▁مؤسسات": 5701,
      "البة": 5702,
      "▁إصلاح": 5703,
      "▁اللعب": 5704,
      "▁فكر": 5705,
      "▁الاستفادة": 5706,
      "▁النصر": 5707,
      "▁واقع": 5708,
      "▁تختلف": 5709,
      "▁يتطلب": 5710,
      "▁الجو": 5711,
      "▁الصراع": 5712,
      "▁جذ": 5713,
      "▁المستشفى": 5714,
      "▁وتف": 5715,
      "▁لدعم": 5716,
      "▁وعم": 5717,
      "▁توقف": 5718,
      "ish": 5719,
      "عان": 5720,
      "▁يدل": 5721,
      "ليلة": 5722,
      "▁المائة": 5723,
      "▁الحسين": 5724,
      "▁المريض": 5725,
      "▁آن": 5726,
      "▁ماء": 5727,
      "▁يعطي": 5728,
      "▁التعليقات": 5729,
      "▁مسؤ": 5730,
      "لاص": 5731,
      "▁ورق": 5732,
      "▁وكيل": 5733,
      "ناد": 5734,
      "▁وطن": 5735,
      "▁وجهة": 5736,
      "فعال": 5737,
      "▁عالمية": 5738,
      "▁المساعد": 5739,
      "▁الألمانية": 5740,
      "َات": 5741,
      "▁يتحدث": 5742,
      "كسر": 5743,
      "▁المرة": 5744,
      "▁زين": 5745,
      "▁اعتبر": 5746,
      "▁الكاملة": 5747,
      "▁مساعدة": 5748,
      "▁....": 5749,
      "▁الدردشة": 5750,
      "▁Pro": 5751,
      "ماذج": 5752,
      "▁الكلمات": 5753,
      "جو": 5754,
      "▁للمن": 5755,
      "ثاث": 5756,
      "▁أمريكي": 5757,
      "خين": 5758,
      "▁إجمالي": 5759,
      "▁غيرها": 5760,
      "حيانا": 5761,
      "▁ثورة": 5762,
      "ريكا": 5763,
      "▁الإدارية": 5764,
      "ريطة": 5765,
      "▁ليف": 5766,
      "▁أرسل": 5767,
      "جيش": 5768,
      "َأ": 5769,
      "ينغ": 5770,
      "▁جميلة": 5771,
      "▁قا": 5772,
      "▁علامة": 5773,
      "▁الفيروس": 5774,
      "مائة": 5775,
      "▁مقتل": 5776,
      "لاه": 5777,
      "نافس": 5778,
      "▁شديد": 5779,
      "عاة": 5780,
      "ياز": 5781,
      "▁يه": 5782,
      "▁تعيش": 5783,
      "▁الإشارة": 5784,
      "▁لمواجهة": 5785,
      "aba": 5786,
      "▁ومد": 5787,
      "حدد": 5788,
      "▁حرص": 5789,
      "▁تدور": 5790,
      "يجة": 5791,
      "▁غرف": 5792,
      "▁مسؤولية": 5793,
      "▁فات": 5794,
      "▁نصر": 5795,
      "▁التوا": 5796,
      "▁الشاب": 5797,
      "كاء": 5798,
      "▁أبوظبي": 5799,
      "سبانيا": 5800,
      "▁عقود": 5801,
      "متع": 5802,
      "وفة": 5803,
      "▁خطأ": 5804,
      "غام": 5805,
      "▁أداة": 5806,
      "▁الدعوة": 5807,
      "▁شعار": 5808,
      "▁مستعملة": 5809,
      "▁أَب": 5810,
      "▁خز": 5811,
      "▁مسألة": 5812,
      "تمام": 5813,
      "▁سيت": 5814,
      "▁شيخ": 5815,
      "كنت": 5816,
      "▁أغلب": 5817,
      "▁والأم": 5818,
      "▁شرطة": 5819,
      "عدام": 5820,
      "▁سلام": 5821,
      "av": 5822,
      "وده": 5823,
      "▁حماس": 5824,
      "غني": 5825,
      "▁ضمان": 5826,
      "ue": 5827,
      "▁وأع": 5828,
      "▁الروح": 5829,
      "▁اليون": 5830,
      "شم": 5831,
      "▁you": 5832,
      "▁((": 5833,
      "ماذا": 5834,
      "▁المساعدة": 5835,
      "▁تبقى": 5836,
      "▁الدكت": 5837,
      "▁أكدت": 5838,
      "▁إله": 5839,
      "▁استعمال": 5840,
      "▁حقق": 5841,
      "▁الرسوم": 5842,
      "▁with": 5843,
      "▁ضوء": 5844,
      "كاة": 5845,
      "الحة": 5846,
      "▁الصناعي": 5847,
      "ارته": 5848,
      "▁الغربي": 5849,
      "▁‪": 5850,
      "ry": 5851,
      "▁مراجعة": 5852,
      "▁النووي": 5853,
      "▁الثقافي": 5854,
      "مييز": 5855,
      "▁الموظفين": 5856,
      "▁وإلى": 5857,
      "▁الجنة": 5858,
      "▁دعوة": 5859,
      "▁الحرة": 5860,
      "شرح": 5861,
      "تن": 5862,
      "▁أظهر": 5863,
      "اركين": 5864,
      "بلس": 5865,
      "▁وأضافت": 5866,
      "▁التقليدية": 5867,
      "▁المركزية": 5868,
      "ْس": 5869,
      "gle": 5870,
      "ترا": 5871,
      "▁وفى": 5872,
      "ُو": 5873,
      "▁برئاسة": 5874,
      "▁ذي": 5875,
      "▁الأدوية": 5876,
      "▁مني": 5877,
      "ضون": 5878,
      "▁الطرفين": 5879,
      "▁الزجاج": 5880,
      "▁إفريقيا": 5881,
      "بدء": 5882,
      "بيعة": 5883,
      "▁مدرب": 5884,
      "▁لفترة": 5885,
      "▁أماكن": 5886,
      "▁بوابة": 5887,
      "▁الامري": 5888,
      "▁الزراعة": 5889,
      "▁المحتوى": 5890,
      "▁للسي": 5891,
      "▁مربع": 5892,
      "▁الكام": 5893,
      "▁المنظ": 5894,
      "سيد": 5895,
      "ذكرة": 5896,
      "▁سهلة": 5897,
      "▁اكتشاف": 5898,
      "▁تطور": 5899,
      "▁نرى": 5900,
      "▁صديق": 5901,
      "▁الخلاف": 5902,
      "▁إنت": 5903,
      "▁فوركس": 5904,
      "هاجر": 5905,
      "ff": 5906,
      "سته": 5907,
      "▁الهجرة": 5908,
      "ارئ": 5909,
      "َتْ": 5910,
      "▁تسعى": 5911,
      "▁الحصى": 5912,
      "▁الزمالك": 5913,
      "▁البرت": 5914,
      "ولايات": 5915,
      "▁السلع": 5916,
      "▁يشير": 5917,
      "سير": 5918,
      "▁صلا": 5919,
      "▁مون": 5920,
      "▁عامل": 5921,
      "▁النسخة": 5922,
      "ركان": 5923,
      "▁أنفسهم": 5924,
      "كيم": 5925,
      "اريو": 5926,
      "▁الذكر": 5927,
      "▁سقوط": 5928,
      "خيل": 5929,
      "بيان": 5930,
      "▁أطلق": 5931,
      "▁المؤمنين": 5932,
      "▁أعراض": 5933,
      "حمة": 5934,
      "▁الرئا": 5935,
      "يطاليا": 5936,
      "تب": 5937,
      "▁لحظة": 5938,
      "▁مناق": 5939,
      "▁وهكذا": 5940,
      "شرت": 5941,
      "▁الصحافة": 5942,
      "وعات": 5943,
      "▁سمو": 5944,
      "غرق": 5945,
      "▁دردشة": 5946,
      "ربون": 5947,
      "زيمة": 5948,
      "▁تأسيس": 5949,
      "▁qu": 5950,
      "▁تصوير": 5951,
      "▁إضافية": 5952,
      "▁شارع": 5953,
      "▁يواجه": 5954,
      "▁الزراعية": 5955,
      "▁الصرف": 5956,
      "▁الإيمان": 5957,
      "▁انس": 5958,
      "▁شيئ": 5959,
      "▁أبطال": 5960,
      "▁Z": 5961,
      "▁حصلت": 5962,
      "▁عمله": 5963,
      "▁واعت": 5964,
      "ْف": 5965,
      "▁مزيد": 5966,
      "▁عنهم": 5967,
      "▁الترب": 5968,
      "▁تفا": 5969,
      "▁الطا": 5970,
      "قيه": 5971,
      "سلة": 5972,
      "▁ة": 5973,
      "▁المستخدمين": 5974,
      "▁الكيميا": 5975,
      "▁المعنية": 5976,
      "حيات": 5977,
      "خصة": 5978,
      "▁الصاد": 5979,
      "▁الرخام": 5980,
      "▁اليس": 5981,
      "ابق": 5982,
      "▁الفور": 5983,
      "▁العدالة": 5984,
      "▁ترتيب": 5985,
      "حيل": 5986,
      "درج": 5987,
      "هدد": 5988,
      "وست": 5989,
      "▁سيف": 5990,
      "▁ثقافة": 5991,
      "▁آخرين": 5992,
      "▁الجزائري": 5993,
      "▁صفوف": 5994,
      "حدات": 5995,
      "▁الناقل": 5996,
      "▁مصلحة": 5997,
      "▁رق": 5998,
      "▁وتست": 5999,
      "▁الشخصي": 6000,
      "▁المصريين": 6001,
      "روات": 6002,
      "دادات": 6003,
      "▁احتياجات": 6004,
      "▁التل": 6005,
      "▁الاستراتيجية": 6006,
      "▁وأما": 6007,
      "▁غذا": 6008,
      "▁أنظمة": 6009,
      "▁الأماكن": 6010,
      "َص": 6011,
      "▁باقي": 6012,
      "▁يخرج": 6013,
      "▁جدًا": 6014,
      "فايات": 6015,
      "▁زوجته": 6016,
      "▁لتقديم": 6017,
      "▁الرقمية": 6018,
      "▁شعبية": 6019,
      "▁يبقى": 6020,
      "▁لضمان": 6021,
      "▁عسكري": 6022,
      "▁وهنا": 6023,
      "▁الغرفة": 6024,
      "▁الفرصة": 6025,
      "كتابة": 6026,
      "▁عائلة": 6027,
      "▁الاولى": 6028,
      "رادة": 6029,
      "وزير": 6030,
      "nl": 6031,
      "ؤكد": 6032,
      "َةَ": 6033,
      "▁تتبع": 6034,
      "دونيسيا": 6035,
      "▁العاملة": 6036,
      "▁حقيقية": 6037,
      "▁لسنة": 6038,
      "▁حتي": 6039,
      "▁بمر": 6040,
      "▁يومي": 6041,
      "▁زوجها": 6042,
      "▁الموافق": 6043,
      "▁اللاجئين": 6044,
      "ell": 6045,
      "فار": 6046,
      "▁الهجوم": 6047,
      "▁ومش": 6048,
      "قدير": 6049,
      "▁واي": 6050,
      "▁الامارات": 6051,
      "▁يدفع": 6052,
      "▁سلامة": 6053,
      "▁ذكرت": 6054,
      "▁فرد": 6055,
      "▁تقارير": 6056,
      "▁حظ": 6057,
      "▁اكبر": 6058,
      "▁تكر": 6059,
      "▁الشبكة": 6060,
      "▁ثنائي": 6061,
      "▁مسار": 6062,
      "az": 6063,
      "جلات": 6064,
      "▁نقوم": 6065,
      "▁المستشار": 6066,
      "▁لِ": 6067,
      "▁لفة": 6068,
      "▁تحول": 6069,
      "▁عكس": 6070,
      "▁بالتح": 6071,
      "وتا": 6072,
      "▁المتحدث": 6073,
      "▁صدق": 6074,
      "لاحظة": 6075,
      "وتيوب": 6076,
      "▁شاب": 6077,
      "\\\\": 6078,
      "▁التابع": 6079,
      "▁مناز": 6080,
      "ئه": 6081,
      "▁خي": 6082,
      "▁اتفاقية": 6083,
      "▁فعاليات": 6084,
      "▁وتطوير": 6085,
      "كنة": 6086,
      "▁مجد": 6087,
      "▁حوار": 6088,
      "▁كول": 6089,
      "▁الدهون": 6090,
      "▁التكسير": 6091,
      "▁الشعور": 6092,
      "بادة": 6093,
      "▁السماء": 6094,
      "▁تؤثر": 6095,
      "زو": 6096,
      "▁صحية": 6097,
      "ee": 6098,
      "ناطق": 6099,
      "▁القب": 6100,
      "ترم": 6101,
      "ibaba": 6102,
      "▁أمل": 6103,
      "▁شار": 6104,
      "▁فئة": 6105,
      "ئون": 6106,
      "▁نيج": 6107,
      "ارتز": 6108,
      "▁تذكر": 6109,
      "▁إلغاء": 6110,
      "بوب": 6111,
      "مارسات": 6112,
      "▁الشمال": 6113,
      "كما": 6114,
      "▁مرو": 6115,
      "▁أجمل": 6116,
      "روبات": 6117,
      "▁لتص": 6118,
      "▁مقدمة": 6119,
      "▁الامر": 6120,
      "▁محددة": 6121,
      "تيات": 6122,
      "▁فشل": 6123,
      "▁محرك": 6124,
      "ضمام": 6125,
      "▁ورقة": 6126,
      "▁لمس": 6127,
      "▁كاف": 6128,
      "▁الحماية": 6129,
      "▁يقال": 6130,
      "▁باللغة": 6131,
      "▁وتخ": 6132,
      "▁بخصوص": 6133,
      "هلية": 6134,
      "قاق": 6135,
      "▁أعلم": 6136,
      "▁تتميز": 6137,
      "▁@": 6138,
      "▁بمناسبة": 6139,
      "املات": 6140,
      "▁الالتزام": 6141,
      "▁والإن": 6142,
      "▁للي": 6143,
      "▁المؤلف": 6144,
      "▁الكلية": 6145,
      "ld": 6146,
      "ٍ،": 6147,
      "فور": 6148,
      "▁سعود": 6149,
      "▁بالرياض": 6150,
      "وغان": 6151,
      "▁أستراليا": 6152,
      "▁ألعاب": 6153,
      "▁انتخابات": 6154,
      "▁اليمني": 6155,
      "▁أقدم": 6156,
      "▁القهوة": 6157,
      "▁إشارة": 6158,
      "▁أمين": 6159,
      "▁طل": 6160,
      "▁وسيلة": 6161,
      "▁القبض": 6162,
      "▁جبل": 6163,
      "▁فالم": 6164,
      "▁النيابة": 6165,
      "ْتُ": 6166,
      "▁العقود": 6167,
      "دامة": 6168,
      "▁نظم": 6169,
      "▁تهدف": 6170,
      "اده": 6171,
      "▁والتق": 6172,
      "▁أشار": 6173,
      "دوز": 6174,
      "ug": 6175,
      "▁ثقاف": 6176,
      "ائم": 6177,
      "▁الموجود": 6178,
      "▁ظهرت": 6179,
      "▁بلاده": 6180,
      "▁عنا": 6181,
      "ُد": 6182,
      "▁النفسية": 6183,
      "▁لوك": 6184,
      "▁الصغير": 6185,
      "▁بمث": 6186,
      "▁طبيعة": 6187,
      "▁نوعية": 6188,
      "▁بإمكان": 6189,
      "▁قريب": 6190,
      "oogle": 6191,
      "▁حسابات": 6192,
      "▁المسؤولية": 6193,
      "ادثة": 6194,
      "▁ممثل": 6195,
      "وقت": 6196,
      "▁المسل": 6197,
      "▁بسعر": 6198,
      "▁الآثار": 6199,
      "▁بسيط": 6200,
      "▁بجانب": 6201,
      "▁باكستان": 6202,
      "طرا": 6203,
      "▁للمس": 6204,
      "▁تدريب": 6205,
      "▁الانتق": 6206,
      "▁ملت": 6207,
      "▁ميت": 6208,
      "▁عر": 6209,
      "▁تعاني": 6210,
      "▁السريع": 6211,
      "كافحة": 6212,
      "قع": 6213,
      "▁أفكار": 6214,
      "▁رسوم": 6215,
      "▁القوانين": 6216,
      "▁ونا": 6217,
      "▁الحاج": 6218,
      "كلم": 6219,
      "ؤه": 6220,
      "زاء": 6221,
      "▁Th": 6222,
      "▁ويكون": 6223,
      "▁يرغب": 6224,
      "▁يمنع": 6225,
      "▁إثر": 6226,
      "▁وسيط": 6227,
      "شيخ": 6228,
      "▁بإن": 6229,
      "لفية": 6230,
      "▁لنفس": 6231,
      "▁الإيرانية": 6232,
      "َانَ": 6233,
      "▁الترا": 6234,
      "▁أحكام": 6235,
      "▁والتنمية": 6236,
      "الش": 6237,
      "ذاكرة": 6238,
      "▁يضع": 6239,
      "▁بتقديم": 6240,
      "▁الشديد": 6241,
      "بتد": 6242,
      "ريبات": 6243,
      "▁الصحيفة": 6244,
      "▁أوب": 6245,
      "قيدة": 6246,
      "▁جدول": 6247,
      "▁الرعاية": 6248,
      "َّة": 6249,
      "▁المرضى": 6250,
      "▁لمت": 6251,
      "▁موجود": 6252,
      "▁الخبرة": 6253,
      "▁المكر": 6254,
      "▁يفعل": 6255,
      "▁لمعرفة": 6256,
      "▁السياق": 6257,
      "▁الرياضي": 6258,
      "▁المنام": 6259,
      "ark": 6260,
      "▁جراء": 6261,
      "▁الأكا": 6262,
      "▁الإصلاح": 6263,
      "▁طي": 6264,
      "▁تور": 6265,
      "صم": 6266,
      "▁يأخذ": 6267,
      "▁عشرات": 6268,
      "▁الحساب": 6269,
      "▁جرى": 6270,
      "▁الحقيقية": 6271,
      "▁رأى": 6272,
      "هيئة": 6273,
      "▁اعتماد": 6274,
      "▁النموذج": 6275,
      "▁الخز": 6276,
      "▁بالذكر": 6277,
      "▁المسؤولين": 6278,
      "▁قررت": 6279,
      "▁تصنيف": 6280,
      "لقاء": 6281,
      "▁عاش": 6282,
      "▁الأر": 6283,
      "▁or": 6284,
      "▁تسا": 6285,
      "▁اسمه": 6286,
      "▁والمش": 6287,
      "▁القيم": 6288,
      "اي": 6289,
      "\"\".\"": 6290,
      "ary": 6291,
      "▁ويف": 6292,
      "▁اثنين": 6293,
      "▁الإنجليزية": 6294,
      "جام": 6295,
      "▁الأساس": 6296,
      "sh": 6297,
      "قيقات": 6298,
      "▁الطائرة": 6299,
      "▁أولى": 6300,
      "▁ورغم": 6301,
      "rusher": 6302,
      "ياج": 6303,
      "▁سريع": 6304,
      "▁رسائل": 6305,
      "▁طبيعية": 6306,
      "▁خطط": 6307,
      "▁السج": 6308,
      "▁محطات": 6309,
      "▁الشؤون": 6310,
      "▁فرع": 6311,
      "▁درهم": 6312,
      "▁الكلمة": 6313,
      "▁ببعض": 6314,
      "▁الأوراق": 6315,
      "▁العملة": 6316,
      "▁الفائدة": 6317,
      "▁أقرب": 6318,
      "▁نيويورك": 6319,
      "وكب": 6320,
      "▁الأصول": 6321,
      "▁نجم": 6322,
      "▁النتيجة": 6323,
      "▁بموجب": 6324,
      "وائز": 6325,
      "▁العائلة": 6326,
      "راسات": 6327,
      "▁المتاحة": 6328,
      "ناً": 6329,
      "▁الذهاب": 6330,
      "▁سكن": 6331,
      "▁مهرجان": 6332,
      "▁بمثابة": 6333,
      "▁الكتابة": 6334,
      "وريت": 6335,
      "▁الأسئلة": 6336,
      ",,": 6337,
      "▁مقت": 6338,
      "ارين": 6339,
      "▁عثمان": 6340,
      "ستيك": 6341,
      "▁ناد": 6342,
      "تحدث": 6343,
      "▁التأمين": 6344,
      "▁حرارة": 6345,
      "▁الصيد": 6346,
      "▁الأطباء": 6347,
      "▁الأهداف": 6348,
      "▁شكرا": 6349,
      "▁منصور": 6350,
      "▁الإعلامي": 6351,
      "▁الكال": 6352,
      "▁الأخضر": 6353,
      "▁تقلي": 6354,
      "▁الحرير": 6355,
      "▁الأفكار": 6356,
      "▁حما": 6357,
      "▁وتقديم": 6358,
      "تمكن": 6359,
      "راغ": 6360,
      "▁الغير": 6361,
      "▁الواقعة": 6362,
      "▁الساخ": 6363,
      "▁سعودي": 6364,
      "راقب": 6365,
      "▁عادل": 6366,
      "▁تكنولوجيا": 6367,
      "▁الرطب": 6368,
      "▁نهائي": 6369,
      "▁بالعمل": 6370,
      "طرية": 6371,
      "▁العميل": 6372,
      "▁تبدو": 6373,
      "▁اختر": 6374,
      "▁ملموسة": 6375,
      "▁إير": 6376,
      "ial": 6377,
      "▁YouT": 6378,
      "فيز": 6379,
      "▁خصم": 6380,
      "▁وقبل": 6381,
      "▁يطلق": 6382,
      "▁الأرج": 6383,
      "▁مطالب": 6384,
      "▁إليك": 6385,
      "▁والأن": 6386,
      "▁٣": 6387,
      "ebook": 6388,
      "ِيم": 6389,
      "▁as": 6390,
      "▁الطلبة": 6391,
      "▁الهواتف": 6392,
      "عبي": 6393,
      "▁جيش": 6394,
      "▁موسم": 6395,
      "▁مقدم": 6396,
      "▁والأس": 6397,
      "▁للز": 6398,
      "▁السلاح": 6399,
      "▁أخبر": 6400,
      "بان": 6401,
      "▁منتديات": 6402,
      "▁أقول": 6403,
      "▁والأح": 6404,
      "▁التشري": 6405,
      "▁حصول": 6406,
      "▁جانبه": 6407,
      "▁القناة": 6408,
      "▁جمهورية": 6409,
      "▁العقوبات": 6410,
      "▁سوء": 6411,
      "هيار": 6412,
      "▁علامات": 6413,
      "▁بمنطقة": 6414,
      "▁الأقصى": 6415,
      "تس": 6416,
      "▁يؤثر": 6417,
      "▁مميزة": 6418,
      "▁نظرة": 6419,
      "يفية": 6420,
      "▁خلفية": 6421,
      "▁الربح": 6422,
      "▁أسهم": 6423,
      "▁مجموع": 6424,
      "▁بقيادة": 6425,
      "قدة": 6426,
      "▁وبدأ": 6427,
      "▁الشاعر": 6428,
      "▁كفاءة": 6429,
      "▁قمة": 6430,
      "▁الخطوات": 6431,
      "ّف": 6432,
      "ng": 6433,
      "▁يضم": 6434,
      "▁خليفة": 6435,
      "▁مساءً": 6436,
      "▁العلامة": 6437,
      "▁ملع": 6438,
      "▁الأفراد": 6439,
      "َاه": 6440,
      "▁الوحي": 6441,
      "▁ولهذا": 6442,
      "▁اليابان": 6443,
      "▁بدر": 6444,
      "▁التيار": 6445,
      "رقية": 6446,
      "▁يمتلك": 6447,
      "ومه": 6448,
      "▁التعبير": 6449,
      "ber": 6450,
      "ّب": 6451,
      "فوظ": 6452,
      "▁تملك": 6453,
      "▁يرجى": 6454,
      "▁الوك": 6455,
      "▁تشعر": 6456,
      "▁للجميع": 6457,
      "▁توقيع": 6458,
      "▁عي": 6459,
      "▁يسبب": 6460,
      "▁التونسي": 6461,
      "وبايل": 6462,
      "بدال": 6463,
      "▁سلوك": 6464,
      "▁يتر": 6465,
      "▁تسليم": 6466,
      "▁الاق": 6467,
      "▁بتص": 6468,
      "▁موجودة": 6469,
      "▁يورو": 6470,
      "تهما": 6471,
      "▁إيجاد": 6472,
      "▁تعليقات": 6473,
      "▁نشرت": 6474,
      "▁واخت": 6475,
      "▁ليكون": 6476,
      "دريب": 6477,
      "انغ": 6478,
      "▁الصعب": 6479,
      "▁غسيل": 6480,
      "طلة": 6481,
      "▁الحملة": 6482,
      "واط": 6483,
      "▁تسمح": 6484,
      "ائعة": 6485,
      "▁الْأ": 6486,
      "شين": 6487,
      ".\"\"": 6488,
      "قدام": 6489,
      "▁مقال": 6490,
      "▁ودعم": 6491,
      "▁نيجيريا": 6492,
      "داب": 6493,
      "ink": 6494,
      "▁قلوب": 6495,
      "شرطة": 6496,
      "▁بعيدا": 6497,
      "▁التأثير": 6498,
      "ائط": 6499,
      "كتشف": 6500,
      "▁إقليم": 6501,
      "▁سحب": 6502,
      "▁الخطاب": 6503,
      "▁المواضيع": 6504,
      "▁الحدث": 6505,
      "▁القمر": 6506,
      "▁ومص": 6507,
      "▁بمعنى": 6508,
      "........": 6509,
      "▁تجارية": 6510,
      "َاد": 6511,
      "ؤل": 6512,
      "▁رابط": 6513,
      "▁it": 6514,
      "▁لتأ": 6515,
      "ؤها": 6516,
      "acebook": 6517,
      "▁التمويل": 6518,
      "▁الابتدا": 6519,
      "وائر": 6520,
      "ُس": 6521,
      "▁الديمقراطي": 6522,
      "▁قادرة": 6523,
      "▁انع": 6524,
      "▁طلاب": 6525,
      "درد": 6526,
      "▁الانف": 6527,
      "▁اهم": 6528,
      "طالب": 6529,
      "▁العدو": 6530,
      "شأ": 6531,
      "▁قريبا": 6532,
      "▁القل": 6533,
      "▁وحده": 6534,
      "▁الشروط": 6535,
      "▁قض": 6536,
      "▁القصة": 6537,
      "▁خلاله": 6538,
      "برة": 6539,
      "▁السوداء": 6540,
      "▁ex": 6541,
      "▁أوضح": 6542,
      "ترول": 6543,
      "▁يمكننا": 6544,
      "حض": 6545,
      "فيس": 6546,
      "زنة": 6547,
      "▁لعم": 6548,
      "▁الصيني": 6549,
      "▁واص": 6550,
      "▁الخامسة": 6551,
      "سيقية": 6552,
      "▁الكا": 6553,
      "▁منتج": 6554,
      "▁ظاهرة": 6555,
      "▁سلطان": 6556,
      "غيرات": 6557,
      "▁تكوين": 6558,
      "▁مجه": 6559,
      "▁خروج": 6560,
      "▁٢٠": 6561,
      "▁أنني": 6562,
      "▁سلطة": 6563,
      "▁الانتهاء": 6564,
      "du": 6565,
      "▁حدد": 6566,
      "▁عمي": 6567,
      "▁وبا": 6568,
      "▁يكفي": 6569,
      "▁قصص": 6570,
      "▁بكم": 6571,
      "قس": 6572,
      "www": 6573,
      "عال": 6574,
      "▁وار": 6575,
      "سمى": 6576,
      "ًّا": 6577,
      "نام": 6578,
      "▁معي": 6579,
      "بوت": 6580,
      "ئر": 6581,
      "وكي": 6582,
      "▁تنمية": 6583,
      "لاغ": 6584,
      "ft": 6585,
      "▁نيس": 6586,
      "▁المتر": 6587,
      "▁الوار": 6588,
      "▁العوامل": 6589,
      "▁فاز": 6590,
      "▁تمتلك": 6591,
      "▁أسرع": 6592,
      "▁السيدة": 6593,
      "▁رمز": 6594,
      "يدرولي": 6595,
      "▁اليمنية": 6596,
      "▁لعدم": 6597,
      "▁منف": 6598,
      "فاه": 6599,
      "سمع": 6600,
      "▁يتعرض": 6601,
      "ورى": 6602,
      "ويتي": 6603,
      "▁صحفي": 6604,
      "▁يطلب": 6605,
      "ورين": 6606,
      "▁ادارة": 6607,
      "▁هند": 6608,
      "▁مورد": 6609,
      "▁النهائية": 6610,
      "▁كفر": 6611,
      "▁متأ": 6612,
      "ure": 6613,
      "خصصات": 6614,
      "▁القرارات": 6615,
      "جيب": 6616,
      "▁مبادرة": 6617,
      "▁يخص": 6618,
      "▁يشت": 6619,
      "▁sh": 6620,
      "▁وعمل": 6621,
      "▁السيلي": 6622,
      "▁للمح": 6623,
      "وميت": 6624,
      "▁الفضاء": 6625,
      "▁قياس": 6626,
      "▁لمش": 6627,
      "▁حرية": 6628,
      "مَ": 6629,
      "▁أَنْ": 6630,
      "▁الرأ": 6631,
      "▁لقب": 6632,
      "▁المعرض": 6633,
      "▁البول": 6634,
      "▁الفل": 6635,
      "الر": 6636,
      "▁le": 6637,
      "▁الخبراء": 6638,
      "▁فوري": 6639,
      "▁الإح": 6640,
      "▁المحيط": 6641,
      "هادات": 6642,
      "▁بالتأكيد": 6643,
      "▁للبن": 6644,
      "▁لَهُ": 6645,
      "شاهد": 6646,
      "بقاء": 6647,
      "▁أرج": 6648,
      "▁الأي": 6649,
      "▁الْح": 6650,
      "▁الحاكم": 6651,
      "▁الرؤية": 6652,
      "كى": 6653,
      "كرون": 6654,
      "طيل": 6655,
      "▁مقالات": 6656,
      "▁يمر": 6657,
      "▁الإرهابية": 6658,
      "▁الجماعة": 6659,
      "▁المدرب": 6660,
      "▁إغلاق": 6661,
      "▁مدن": 6662,
      "▁مطر": 6663,
      "▁صاح": 6664,
      "▁أمراض": 6665,
      "جمال": 6666,
      "▁وحدات": 6667,
      "▁البريطاني": 6668,
      "▁...\"": 6669,
      "▁قبول": 6670,
      "▁الدراسي": 6671,
      "▁منهما": 6672,
      "▁الطبيعة": 6673,
      "قاع": 6674,
      "▁رعاية": 6675,
      "▁لحم": 6676,
      "▁الميلاد": 6677,
      "▁ولفت": 6678,
      "▁قصر": 6679,
      "▁العش": 6680,
      "▁مفاج": 6681,
      "وضة": 6682,
      "▁الأسلحة": 6683,
      "▁بمجرد": 6684,
      "▁الأنشطة": 6685,
      "▁النيل": 6686,
      "اتل": 6687,
      "▁تعلن": 6688,
      "▁للمؤ": 6689,
      "▁والبر": 6690,
      "▁نجوم": 6691,
      "▁الدرجة": 6692,
      "▁مشاهد": 6693,
      "hats": 6694,
      "▁زال": 6695,
      "َّذ": 6696,
      "▁المعم": 6697,
      "▁لحماية": 6698,
      "▁فقدان": 6699,
      "▁تحاول": 6700,
      "ذاك": 6701,
      "▁زم": 6702,
      "فسة": 6703,
      "▁لاي": 6704,
      "ْي": 6705,
      "▁تفعيل": 6706,
      "ارى": 6707,
      "▁ثمن": 6708,
      "▁للوصول": 6709,
      "▁البور": 6710,
      "▁الانتاج": 6711,
      "▁كتابه": 6712,
      "زه": 6713,
      "▁الفنانة": 6714,
      "▁سفر": 6715,
      "▁استغلال": 6716,
      "▁عددا": 6717,
      "▁التجربة": 6718,
      "ere": 6719,
      "▁سعي": 6720,
      "▁الشعوب": 6721,
      "▁قدمت": 6722,
      "▁التعرف": 6723,
      "▁الجهة": 6724,
      "▁خطاب": 6725,
      "▁الجيل": 6726,
      "▁زر": 6727,
      "▁الأصلي": 6728,
      "▁هجوم": 6729,
      "▁مخاطر": 6730,
      "▁آب": 6731,
      "شام": 6732,
      "ديان": 6733,
      "تو": 6734,
      "ome": 6735,
      "▁نم": 6736,
      "▁المقر": 6737,
      "▁السوداني": 6738,
      "▁لمست": 6739,
      "▁الجنس": 6740,
      "▁Alibaba": 6741,
      "فذة": 6742,
      "▁رغ": 6743,
      "▁بمحافظة": 6744,
      "▁المستمر": 6745,
      "▁بيئة": 6746,
      "▁التدخل": 6747,
      "▁لآ": 6748,
      "▁المبارك": 6749,
      "▁الإعلامية": 6750,
      "▁وبم": 6751,
      "▁التهاب": 6752,
      "▁ar": 6753,
      "▁السفير": 6754,
      "خيصة": 6755,
      "▁محلية": 6756,
      "▁المحاجر": 6757,
      "▁وقعت": 6758,
      "▁الخلايا": 6759,
      "▁السرعة": 6760,
      "▁مكون": 6761,
      "▁جزيرة": 6762,
      "▁قالوا": 6763,
      "▁المستثمرين": 6764,
      "▁لَا": 6765,
      "روك": 6766,
      "▁عالي": 6767,
      "▁تخرج": 6768,
      "وقعة": 6769,
      "▁خارجية": 6770,
      "▁دولية": 6771,
      "ساتين": 6772,
      "sp": 6773,
      "▁الجلسة": 6774,
      "ستها": 6775,
      "▁غيار": 6776,
      "▁بدي": 6777,
      "▁wh": 6778,
      "▁البالغ": 6779,
      "▁رئاسة": 6780,
      "▁إذن": 6781,
      "▁موت": 6782,
      "ظاهرات": 6783,
      "مج": 6784,
      "▁أصول": 6785,
      "▁مجموعات": 6786,
      "▁يتمتع": 6787,
      "▁الجماهير": 6788,
      "▁وأد": 6789,
      "كِ": 6790,
      "▁استقبال": 6791,
      "▁العيد": 6792,
      "▁اقتصاد": 6793,
      "▁المنافسة": 6794,
      "ربت": 6795,
      "▁القائم": 6796,
      "▁تعت": 6797,
      "▁طبية": 6798,
      "▁الدقيق": 6799,
      "طبق": 6800,
      "▁مزد": 6801,
      "▁القا": 6802,
      "▁وتعالى": 6803,
      "▁تأخذ": 6804,
      "▁pdf": 6805,
      "▁أند": 6806,
      "▁يتضمن": 6807,
      "سيك": 6808,
      "▁قمت": 6809,
      "▁بانت": 6810,
      "▁المبيعات": 6811,
      "▁الليبي": 6812,
      "▁كوريا": 6813,
      "اناة": 6814,
      "▁YouTube": 6815,
      "▁تضمن": 6816,
      "▁فضل": 6817,
      "▁مئات": 6818,
      "▁رواه": 6819,
      "▁الاكت": 6820,
      "▁الدخل": 6821,
      "▁اتخذ": 6822,
      "▁الأطعمة": 6823,
      "واف": 6824,
      "راط": 6825,
      "▁الحص": 6826,
      "خاب": 6827,
      "▁ومنت": 6828,
      "بارية": 6829,
      "▁مهارات": 6830,
      "وضيح": 6831,
      "▁ليت": 6832,
      "وارئ": 6833,
      "▁صعوبة": 6834,
      "▁مرح": 6835,
      "▁التراث": 6836,
      "▁تؤكد": 6837,
      "است": 6838,
      "▁ناقل": 6839,
      "سف": 6840,
      "وقوف": 6841,
      "▁فيسبوك": 6842,
      "▁يتمكن": 6843,
      "ile": 6844,
      "سيطر": 6845,
      "▁$": 6846,
      "▁لحقوق": 6847,
      "▁يخت": 6848,
      "ows": 6849,
      "▁وكما": 6850,
      "▁الخر": 6851,
      "▁سهل": 6852,
      "▁عاماً": 6853,
      "up": 6854,
      "▁يحقق": 6855,
      "▁بريد": 6856,
      "▁نقول": 6857,
      "▁الرواية": 6858,
      "▁الوث": 6859,
      "▁المبادرة": 6860,
      "▁المميز": 6861,
      "▁بقية": 6862,
      "ech": 6863,
      "▁متك": 6864,
      "▁وآله": 6865,
      "عتين": 6866,
      "تحانات": 6867,
      "▁استعداد": 6868,
      "▁أقصى": 6869,
      "▁الصد": 6870,
      "▁المنازل": 6871,
      "ظن": 6872,
      "▁وجعل": 6873,
      "▁وبحسب": 6874,
      "▁الأدوات": 6875,
      "▁الخطوط": 6876,
      "▁يسعى": 6877,
      "ناها": 6878,
      "▁أبدا": 6879,
      "▁للمرة": 6880,
      "▁المصنعين": 6881,
      "▁ونقل": 6882,
      "▁الأحزاب": 6883,
      "▁خبراء": 6884,
      "▁الجي": 6885,
      "▁قيل": 6886,
      "▁https": 6887,
      "وقيع": 6888,
      "▁يستحق": 6889,
      "هلا": 6890,
      "▁المكونات": 6891,
      "▁الشراء": 6892,
      "▁الشحن": 6893,
      "▁فري": 6894,
      "▁الطف": 6895,
      "اتم": 6896,
      "▁Pl": 6897,
      "ظى": 6898,
      "▁ثقيلة": 6899,
      "فتاء": 6900,
      "▁المصرى": 6901,
      "▁مور": 6902,
      "ery": 6903,
      "▁جس": 6904,
      "▁سابقا": 6905,
      "▁تجنب": 6906,
      "▁تمويل": 6907,
      "co": 6908,
      "جت": 6909,
      "▁حلب": 6910,
      "رخ": 6911,
      "اوف": 6912,
      "لسفة": 6913,
      "▁المئة": 6914,
      "▁المشاهد": 6915,
      "صدير": 6916,
      "▁بالمئة": 6917,
      "انو": 6918,
      "متاع": 6919,
      "▁سيل": 6920,
      "▁وهى": 6921,
      "فون": 6922,
      "▁أوراق": 6923,
      "▁الالكتروني": 6924,
      "▁الاسلامية": 6925,
      "جوز": 6926,
      "▁un": 6927,
      "▁ثقة": 6928,
      "▁خبرة": 6929,
      "▁يختلف": 6930,
      "ديلات": 6931,
      "▁تأمين": 6932,
      "▁التحليل": 6933,
      "▁الامير": 6934,
      "▁والتى": 6935,
      "▁حقا": 6936,
      "▁والتع": 6937,
      "▁مطلوب": 6938,
      "▁Com": 6939,
      "▁امس": 6940,
      "▁المحافظات": 6941,
      "لالات": 6942,
      "▁بالان": 6943,
      "▁يو": 6944,
      "عوة": 6945,
      "orm": 6946,
      "▁لتع": 6947,
      "▁دو": 6948,
      "▁عال": 6949,
      "▁المأ": 6950,
      "▁للعم": 6951,
      "ولاية": 6952,
      "وسائل": 6953,
      "▁تواجد": 6954,
      "اااا": 6955,
      "حوا": 6956,
      "▁بجميع": 6957,
      "▁الكنيسة": 6958,
      "طوم": 6959,
      "▁وبناء": 6960,
      "▁علما": 6961,
      "▁منازل": 6962,
      "▁ربط": 6963,
      "▁الأولية": 6964,
      "بطال": 6965,
      "▁لإعادة": 6966,
      "▁المشهد": 6967,
      "ُب": 6968,
      "▁رام": 6969,
      "ضادة": 6970,
      "ذان": 6971,
      "▁خفض": 6972,
      "▁قيد": 6973,
      "▁معركة": 6974,
      "▁الأوضاع": 6975,
      "▁السلوك": 6976,
      "▁للأن": 6977,
      "▁قادة": 6978,
      "يلول": 6979,
      "▁—": 6980,
      "ْرِ": 6981,
      "▁لتق": 6982,
      "الله": 6983,
      "ربات": 6984,
      "غت": 6985,
      "▁تقدير": 6986,
      "▁السجن": 6987,
      "واطنين": 6988,
      "خدمي": 6989,
      "▁التخطيط": 6990,
      "▁المجر": 6991,
      "▁وزيادة": 6992,
      "بيلة": 6993,
      "لاعب": 6994,
      "ودان": 6995,
      "▁ميد": 6996,
      "▁معدلات": 6997,
      "▁وأيضا": 6998,
      "▁مسيرة": 6999,
      "▁اقتصادية": 7000,
      "عها": 7001,
      "حك": 7002,
      "ظهار": 7003,
      "▁عيسى": 7004,
      "▁الاعتماد": 7005,
      "▁الجميلة": 7006,
      "ستير": 7007,
      "ماعة": 7008,
      "▁أسلوب": 7009,
      "▁النفسي": 7010,
      "▁ويكي": 7011,
      "▁وعرض": 7012,
      "▁أمور": 7013,
      "▁تجار": 7014,
      "▁يعانون": 7015,
      "▁التمر": 7016,
      "▁لتكون": 7017,
      "ree": 7018,
      "▁سك": 7019,
      "▁حينما": 7020,
      "▁الحيوية": 7021,
      "▁الخارجي": 7022,
      "▁الشام": 7023,
      "ئناف": 7024,
      "▁الصحف": 7025,
      "▁نعرف": 7026,
      "▁طيب": 7027,
      "▁الاستقرار": 7028,
      "▁سياق": 7029,
      ".[": 7030,
      "▁الظهر": 7031,
      "▁مصري": 7032,
      "▁الكوارتز": 7033,
      "▁لتم": 7034,
      "▁الإي": 7035,
      "▁الاستش": 7036,
      "▁مزي": 7037,
      "▁نبات": 7038,
      "لامي": 7039,
      "oad": 7040,
      "▁الصالح": 7041,
      "▁للان": 7042,
      "▁الرسائل": 7043,
      "▁تعبر": 7044,
      "▁للمنت": 7045,
      "▁بدل": 7046,
      "▁سالم": 7047,
      "▁وَق": 7048,
      "▁الألماني": 7049,
      "▁مراقبة": 7050,
      "▁تعني": 7051,
      "ign": 7052,
      "▁أسر": 7053,
      "جاجات": 7054,
      "ْق": 7055,
      "▁قي": 7056,
      "َنَا": 7057,
      "بياء": 7058,
      "وضحت": 7059,
      "▁للث": 7060,
      "▁باستمرار": 7061,
      "▁البخاري": 7062,
      "▁that": 7063,
      "▁فعلا": 7064,
      "▁طائرة": 7065,
      "▁وأنت": 7066,
      "▁مواقف": 7067,
      "▁ومل": 7068,
      "▁والمد": 7069,
      "▁والخدمات": 7070,
      "▁دقيق": 7071,
      "▁مبيعات": 7072,
      "ّق": 7073,
      "▁أيار": 7074,
      "تحان": 7075,
      "▁بمست": 7076,
      "▁this": 7077,
      "فازات": 7078,
      "▁والده": 7079,
      "▁يتميز": 7080,
      "▁قوى": 7081,
      "▁يلعب": 7082,
      "▁البدء": 7083,
      "بلوماسية": 7084,
      "▁الرائدة": 7085,
      "▁جورج": 7086,
      "لقي": 7087,
      "▁لعلاج": 7088,
      "فاهيم": 7089,
      "▁أريد": 7090,
      "▁شؤون": 7091,
      "بيئة": 7092,
      "▁فإنها": 7093,
      "▁المتعاقد": 7094,
      "▁رصد": 7095,
      "وريد": 7096,
      "ong": 7097,
      "▁نصائح": 7098,
      "▁بمس": 7099,
      "▁حزام": 7100,
      "▁فص": 7101,
      "▁وجميع": 7102,
      "▁الزيت": 7103,
      "▁اضغط": 7104,
      "طاعم": 7105,
      "▁بوجود": 7106,
      "▁الولادة": 7107,
      "نياه": 7108,
      "▁كسر": 7109,
      "▁معرف": 7110,
      "▁السويس": 7111,
      "قاعد": 7112,
      "وفا": 7113,
      "▁وحق": 7114,
      "▁الخمس": 7115,
      "▁تضع": 7116,
      "كشف": 7117,
      "▁مستمر": 7118,
      "▁التحت": 7119,
      "▁نع": 7120,
      "▁تصدر": 7121,
      "▁تركي": 7122,
      "▁زايد": 7123,
      "جعل": 7124,
      "▁الأدنى": 7125,
      "▁أدنى": 7126,
      "▁المشاركين": 7127,
      "هاي": 7128,
      "▁pl": 7129,
      "▁الموس": 7130,
      "▁الفنادق": 7131,
      "▁عف": 7132,
      "▁الترج": 7133,
      "طرابات": 7134,
      "▁Google": 7135,
      "▁فتاة": 7136,
      "▁واحت": 7137,
      "▁سريعة": 7138,
      "ئتم": 7139,
      "▁مقاومة": 7140,
      "▁للغ": 7141,
      "▁نهر": 7142,
      "ثمارية": 7143,
      "▁والتر": 7144,
      "▁بالاست": 7145,
      "▁مشترك": 7146,
      "▁العروض": 7147,
      "▁وَس": 7148,
      "كشاف": 7149,
      "▁الهد": 7150,
      "▁بنات": 7151,
      "▁ab": 7152,
      "▁المسئ": 7153,
      "طفل": 7154,
      "▁أسفل": 7155,
      "▁الحزام": 7156,
      "▁عنده": 7157,
      "▁القاضي": 7158,
      "▁النقاط": 7159,
      "▁>>": 7160,
      "▁جع": 7161,
      "▁تتطلب": 7162,
      "▁تتمكن": 7163,
      "ازة": 7164,
      "▁وكذا": 7165,
      "▁مديرية": 7166,
      "▁الأه": 7167,
      "▁ترجمة": 7168,
      "▁الشخصيات": 7169,
      "▁طارق": 7170,
      "▁يشمل": 7171,
      "▁am": 7172,
      "وراً": 7173,
      "▁كاتب": 7174,
      "حاق": 7175,
      "جازات": 7176,
      "اليف": 7177,
      "▁مصنعي": 7178,
      "▁العناية": 7179,
      "▁برس": 7180,
      "▁وله": 7181,
      "▁طهران": 7182,
      "يجار": 7183,
      "▁تثبيت": 7184,
      "▁فيهم": 7185,
      "▁الصناعات": 7186,
      "ظيمة": 7187,
      "هرات": 7188,
      "▁طرا": 7189,
      "▁أيها": 7190,
      "▁الجاه": 7191,
      "▁التوالي": 7192,
      "▁فائ": 7193,
      "▁بحر": 7194,
      "دران": 7195,
      "لكم": 7196,
      "▁الْع": 7197,
      "▁ينظر": 7198,
      "▁أخي": 7199,
      "▁إنّ": 7200,
      "▁الخي": 7201,
      "▁عاط": 7202,
      "▁وحي": 7203,
      "▁بالصور": 7204,
      "▁تعاون": 7205,
      "أمل": 7206,
      "▁الكلي": 7207,
      "▁سبع": 7208,
      "▁يدعم": 7209,
      "▁الإنت": 7210,
      "▁ايران": 7211,
      "▁تأكيد": 7212,
      "ظي": 7213,
      "▁التكلفة": 7214,
      "▁مير": 7215,
      "▁يعرض": 7216,
      "بادرات": 7217,
      "ذاء": 7218,
      "▁رسمي": 7219,
      "▁القطاعات": 7220,
      "▁con": 7221,
      "امرة": 7222,
      "ائك": 7223,
      "▁تشت": 7224,
      "▁التحتية": 7225,
      "▁بالطبع": 7226,
      "▁شرائ": 7227,
      "▁ورفع": 7228,
      "▁التسويق": 7229,
      "▁زاد": 7230,
      "▁لشراء": 7231,
      "▁الغذائي": 7232,
      "▁شريك": 7233,
      "▁وآخر": 7234,
      "▁موسكو": 7235,
      "نتين": 7236,
      "▁الطويل": 7237,
      "▁مفر": 7238,
      "▁بلدة": 7239,
      "▁هما": 7240,
      "▁from": 7241,
      "▁معهد": 7242,
      "▁السوريين": 7243,
      "▁عقل": 7244,
      "▁صلة": 7245,
      "▁التنظيف": 7246,
      "▁المفاوضات": 7247,
      "▁ساهم": 7248,
      "▁مكونات": 7249,
      "مني": 7250,
      "فتاح": 7251,
      "▁النهار": 7252,
      "▁يتيح": 7253,
      "▁تبين": 7254,
      "▁فكل": 7255,
      "تيش": 7256,
      "▁مواصفات": 7257,
      "▁يدي": 7258,
      "▁أجر": 7259,
      "▁نار": 7260,
      "▁ينتظر": 7261,
      "▁العمومية": 7262,
      "▁بالتن": 7263,
      "▁إيطاليا": 7264,
      "▁ميزة": 7265,
      "▁المستهلك": 7266,
      "▁أقوى": 7267,
      "▁للمت": 7268,
      "▁الفقر": 7269,
      "▁جنب": 7270,
      "▁واستخدام": 7271,
      "▁العشرين": 7272,
      "▁متخصص": 7273,
      "▁المناخ": 7274,
      "▁اختلاف": 7275,
      "▁التوتر": 7276,
      "حدة": 7277,
      "َيْر": 7278,
      "▁x": 7279,
      "▁يهدف": 7280,
      "▁وطنية": 7281,
      "▁ويعتبر": 7282,
      "▁قليلا": 7283,
      "▁البياني": 7284,
      "▁اضافة": 7285,
      "▁البقاء": 7286,
      "▁معروف": 7287,
      "▁أسابيع": 7288,
      "تبة": 7289,
      "▁غاية": 7290,
      "▁صعب": 7291,
      "▁لطحن": 7292,
      "إِ": 7293,
      "نته": 7294,
      "▁الفكرة": 7295,
      "؟!": 7296,
      "بعث": 7297,
      "▁بقدر": 7298,
      "▁الجملة": 7299,
      "▁مضيفا": 7300,
      "▁نيسان": 7301,
      "▁الساحة": 7302,
      "▁الوعي": 7303,
      "زت": 7304,
      "”،": 7305,
      "▁يدعو": 7306,
      "▁تدوير": 7307,
      "وضى": 7308,
      "ire": 7309,
      "صبحت": 7310,
      "▁أراضي": 7311,
      "رابة": 7312,
      "دردشة": 7313,
      "▁الشأن": 7314,
      "▁ad": 7315,
      "▁المتم": 7316,
      "▁بطل": 7317,
      "▁الزيتون": 7318,
      "▁الأثر": 7319,
      "▁المنزلية": 7320,
      "▁الصحراء": 7321,
      "▁وخصوص": 7322,
      "▁صفقة": 7323,
      "▁الصهيوني": 7324,
      "▁﴿": 7325,
      "▁الكث": 7326,
      "▁تعا": 7327,
      "▁جريمة": 7328,
      "▁جنا": 7329,
      "▁للانت": 7330,
      "▁المعدة": 7331,
      "▁عباد": 7332,
      "▁يجمع": 7333,
      "▁التحديات": 7334,
      "▁أسواق": 7335,
      "▁منصب": 7336,
      "▁أبد": 7337,
      "▁وكيفية": 7338,
      "قلق": 7339,
      "▁بلدان": 7340,
      "▁قوانين": 7341,
      "صمة": 7342,
      "صيلة": 7343,
      "▁are": 7344,
      "ويف": 7345,
      "عوا": 7346,
      "▁كافية": 7347,
      "ؤدي": 7348,
      "▁كتبت": 7349,
      "شيا": 7350,
      "▁الحبوب": 7351,
      "ونغ": 7352,
      "▁آمن": 7353,
      "▁أولاً": 7354,
      "▁ريموند": 7355,
      "ذور": 7356,
      "▁الانتقال": 7357,
      "▁الصحيحة": 7358,
      "ram": 7359,
      "▁خصائص": 7360,
      "org": 7361,
      "▁مسر": 7362,
      "ديس": 7363,
      "▁للمشاركة": 7364,
      "▁طعام": 7365,
      "▁سيتي": 7366,
      "▁الجوي": 7367,
      "شهد": 7368,
      "▁تردد": 7369,
      "▁آلية": 7370,
      "▁حلقة": 7371,
      "▁رمل": 7372,
      "▁المجتمعات": 7373,
      "▁Ad": 7374,
      "▁الشريعة": 7375,
      "▁المقابل": 7376,
      "▁إنسان": 7377,
      "▁جملة": 7378,
      "▁جرائم": 7379,
      "▁والعالم": 7380,
      "▁الألوان": 7381,
      "▁الما": 7382,
      "▁للدولة": 7383,
      "▁الشهيد": 7384,
      "▁النور": 7385,
      "ـ.": 7386,
      "تمدة": 7387,
      "▁يكشف": 7388,
      "جملة": 7389,
      "▁شخصا": 7390,
      "قش": 7391,
      "▁أسئلة": 7392,
      "▁المعي": 7393,
      "▁الضر": 7394,
      "▁استخدامه": 7395,
      "▁كلي": 7396,
      "ction": 7397,
      "▁كتلة": 7398,
      "▁الزيارة": 7399,
      "▁الرائعة": 7400,
      "▁٠": 7401,
      "▁بأم": 7402,
      "▁الناتج": 7403,
      "كاب": 7404,
      "هوري": 7405,
      "ادلة": 7406,
      "▁وتحقيق": 7407,
      "▁الإله": 7408,
      "▁نكون": 7409,
      "App": 7410,
      "طلح": 7411,
      "▁دير": 7412,
      "▁العائ": 7413,
      "▁الحلول": 7414,
      "يجاد": 7415,
      "▁كاب": 7416,
      "حاولة": 7417,
      "لبين": 7418,
      "▁الحمراء": 7419,
      "▁حدثنا": 7420,
      "▁مكاف": 7421,
      "▁الفض": 7422,
      "▁هول": 7423,
      "▁واد": 7424,
      "جأ": 7425,
      "▁مبر": 7426,
      "▁يكتب": 7427,
      "صيدة": 7428,
      "so": 7429,
      "لط": 7430,
      "▁مواضيع": 7431,
      "▁en": 7432,
      "▁سلاح": 7433,
      "▁الاعتبار": 7434,
      "لون": 7435,
      "▁السلم": 7436,
      "▁والتص": 7437,
      "▁وزراء": 7438,
      "▁الصعيد": 7439,
      "▁شديدة": 7440,
      "▁حرف": 7441,
      "قاهرة": 7442,
      "▁الضفة": 7443,
      "▁الخطأ": 7444,
      "▁فهد": 7445,
      "َط": 7446,
      "▁المخدرات": 7447,
      "نياهو": 7448,
      "▁المحدودة": 7449,
      "▁وأشارت": 7450,
      "▁يقبل": 7451,
      "▁لإنتاج": 7452,
      "َوْم": 7453,
      "▁نزل": 7454,
      "▁ومحمد": 7455,
      "▁بجامعة": 7456,
      "▁وحسب": 7457,
      "طنبول": 7458,
      "▁الأحوال": 7459,
      "▁مؤقت": 7460,
      "▁وتوفير": 7461,
      "wit": 7462,
      "▁دست": 7463,
      "▁منخفضة": 7464,
      "سيما": 7465,
      "▁انظر": 7466,
      "▁المختصة": 7467,
      "▁أعتقد": 7468,
      "cc": 7469,
      "▁وقوع": 7470,
      "زلة": 7471,
      "وائح": 7472,
      "ْح": 7473,
      "▁الجريمة": 7474,
      "▁ورس": 7475,
      "▁And": 7476,
      "كسسو": 7477,
      "▁تقت": 7478,
      "▁يشهد": 7479,
      "وبيا": 7480,
      "▁الدماغ": 7481,
      "▁استثمار": 7482,
      "كوم": 7483,
      "▁مثال": 7484,
      "▁عوامل": 7485,
      "▁مظ": 7486,
      "▁الارض": 7487,
      "▁صخرة": 7488,
      "▁المعنى": 7489,
      "▁فب": 7490,
      "شك": 7491,
      "▁اتباع": 7492,
      "▁واضاف": 7493,
      "▁شحن": 7494,
      "▁بأفضل": 7495,
      "▁لمنع": 7496,
      "▁استمر": 7497,
      "ثق": 7498,
      "▁منطق": 7499,
      "▁ملعقة": 7500,
      "▁أرباح": 7501,
      "لاس": 7502,
      "اضافة": 7503,
      "▁الأردنية": 7504,
      "▁النجم": 7505,
      "▁الإرهابي": 7506,
      "ركم": 7507,
      "▁بوضع": 7508,
      "▁مطلع": 7509,
      "▁والفر": 7510,
      "▁هوا": 7511,
      "▁اط": 7512,
      "جيال": 7513,
      "▁يفضل": 7514,
      "▁الربيع": 7515,
      "▁التاسع": 7516,
      "▁الصندوق": 7517,
      "▁لأحد": 7518,
      "▁بتع": 7519,
      "▁الخوف": 7520,
      "▁منس": 7521,
      "▁Facebook": 7522,
      "▁مكتبة": 7523,
      "لمانية": 7524,
      "افات": 7525,
      "بالغ": 7526,
      "▁سيناء": 7527,
      "شستر": 7528,
      "▁فيصل": 7529,
      "▁علمية": 7530,
      "▁عامًا": 7531,
      "▁وبح": 7532,
      "▁الملي": 7533,
      "َةُ": 7534,
      "▁بنظام": 7535,
      "رابط": 7536,
      "▁قابلة": 7537,
      "ئاب": 7538,
      "▁اعتقال": 7539,
      "▁نخ": 7540,
      "▁شئ": 7541,
      "▁استراتيجيات": 7542,
      "▁طبيب": 7543,
      "▁متطلبات": 7544,
      "▁he": 7545,
      "نكر": 7546,
      "▁خطيرة": 7547,
      "▁تموز": 7548,
      "▁للعام": 7549,
      "▁وخلال": 7550,
      "▁ch": 7551,
      "كسسوارات": 7552,
      "كرانيا": 7553,
      "ذات": 7554,
      "▁جلس": 7555,
      "▁جهد": 7556,
      "لاط": 7557,
      "▁سيس": 7558,
      "▁يشارك": 7559,
      "▁مشارك": 7560,
      "يمات": 7561,
      "▁الفئة": 7562,
      "▁جوز": 7563,
      "ظات": 7564,
      "وزع": 7565,
      "▁Bl": 7566,
      "▁وشدد": 7567,
      "▁مصنعين": 7568,
      "▁والي": 7569,
      "▁العلامات": 7570,
      "جها": 7571,
      "▁٪": 7572,
      "قيت": 7573,
      "▁الألب": 7574,
      "دان": 7575,
      "▁للض": 7576,
      "▁الحرمين": 7577,
      "مثل": 7578,
      "قتين": 7579,
      "▁الويب": 7580,
      "▁سقط": 7581,
      "رياضة": 7582,
      "صلت": 7583,
      "▁كلّ": 7584,
      "))": 7585,
      "▁حادث": 7586,
      "▁وابن": 7587,
      "▁ميلاد": 7588,
      "َش": 7589,
      "▁الدار": 7590,
      "▁القنوات": 7591,
      "▁عنصر": 7592,
      "▁انطلاق": 7593,
      "▁إدخال": 7594,
      "▁لتطوير": 7595,
      "▁ربع": 7596,
      "▁كبرى": 7597,
      "▁الشتاء": 7598,
      "▁اسرائيل": 7599,
      "وابط": 7600,
      "رافق": 7601,
      "▁الشيطان": 7602,
      "تملة": 7603,
      "صورة": 7604,
      "▁مرب": 7605,
      "ذير": 7606,
      "▁وبن": 7607,
      "ائفة": 7608,
      "▁الانتخابية": 7609,
      "▁البيض": 7610,
      "▁لاستخدام": 7611,
      "▁تعطي": 7612,
      "▁خادم": 7613,
      "▁القضائية": 7614,
      "▁والمه": 7615,
      "جحة": 7616,
      "▁الاير": 7617,
      "الفات": 7618,
      "▁وادي": 7619,
      "▁حديثة": 7620,
      "▁فحسب": 7621,
      "َض": 7622,
      "رقم": 7623,
      "ical": 7624,
      "▁زالت": 7625,
      "▁الضروري": 7626,
      "\"\":": 7627,
      "▁ونصف": 7628,
      "▁الحضور": 7629,
      "▁بتش": 7630,
      "ower": 7631,
      "▁المفر": 7632,
      "▁الصادر": 7633,
      "ميه": 7634,
      "▁القمة": 7635,
      "io": 7636,
      "▁كميات": 7637,
      "▁لسان": 7638,
      "▁العادية": 7639,
      "▁المسيحي": 7640,
      "▁التغذية": 7641,
      "حتها": 7642,
      "nt": 7643,
      "▁تبادل": 7644,
      "▁الجنوبي": 7645,
      "▁البلدية": 7646,
      "▁أثبت": 7647,
      "▁سابقة": 7648,
      "▁فيتامين": 7649,
      "▁تدعم": 7650,
      "▁فح": 7651,
      "غانستان": 7652,
      "▁زراعة": 7653,
      "دايا": 7654,
      "▁موث": 7655,
      "قود": 7656,
      "▁معك": 7657,
      "▁للحفاظ": 7658,
      "▁التنفيذية": 7659,
      "قاب": 7660,
      "▁أسرة": 7661,
      "▁الأرباح": 7662,
      "▁فكيف": 7663,
      "عوبات": 7664,
      "▁الإجتما": 7665,
      "▁يهم": 7666,
      "صيب": 7667,
      "▁وضعت": 7668,
      "▁الوكالة": 7669,
      "▁فلما": 7670,
      "▁تفعل": 7671,
      "▁الفتاة": 7672,
      "عتماد": 7673,
      "▁سيم": 7674,
      "▁بلدية": 7675,
      "صين": 7676,
      "▁محتوى": 7677,
      "▁المميزة": 7678,
      "▁التصوير": 7679,
      "شخاص": 7680,
      "▁يرد": 7681,
      "▁تتمتع": 7682,
      "▁روب": 7683,
      "عدادات": 7684,
      "فح": 7685,
      "▁ثانيا": 7686,
      "▁الصلة": 7687,
      "ئيا": 7688,
      "▁الأفلام": 7689,
      "▁يحيى": 7690,
      "▁الأعراض": 7691,
      "َلَ": 7692,
      "▁ساحة": 7693,
      "ونيا": 7694,
      "▁تابعة": 7695,
      "يكاني": 7696,
      "شعر": 7697,
      "▁غدا": 7698,
      "سيطة": 7699,
      "راتيجي": 7700,
      "َوْل": 7701,
      "▁الوسائل": 7702,
      "▁تكاليف": 7703,
      "▁الحريري": 7704,
      "▁محفوظ": 7705,
      "indows": 7706,
      "▁قار": 7707,
      "ديوهات": 7708,
      "▁تجرب": 7709,
      "▁الوقود": 7710,
      "▁أبا": 7711,
      "▁الثابت": 7712,
      "▁اقتصادي": 7713,
      "▁منجم": 7714,
      "▁إثراء": 7715,
      "▁وتكون": 7716,
      "وفيق": 7717,
      "▁المتخصصة": 7718,
      "▁فني": 7719,
      "▁لنقل": 7720,
      "ادثات": 7721,
      "▁راشد": 7722,
      "شارة": 7723,
      "راوي": 7724,
      "▁كات": 7725,
      "▁نسخ": 7726,
      "لفل": 7727,
      "▁الربع": 7728,
      "▁الخطة": 7729,
      "نازل": 7730,
      "▁يرفض": 7731,
      "▁صفحات": 7732,
      "ئمة": 7733,
      "▁الإطار": 7734,
      "▁حام": 7735,
      "▁الشهيرة": 7736,
      "▁وفد": 7737,
      "rou": 7738,
      "▁الفرص": 7739,
      "▁وتعزيز": 7740,
      "حداث": 7741,
      "▁نريد": 7742,
      "▁المذكورة": 7743,
      "▁والاجتماعية": 7744,
      "▁الحكومي": 7745,
      "▁عمره": 7746,
      "▁آذار": 7747,
      "▁تقبل": 7748,
      "حته": 7749,
      "▁تغذية": 7750,
      "▁الحلم": 7751,
      "▁حديد": 7752,
      "▁المسار": 7753,
      "▁كمال": 7754,
      "▁منظومة": 7755,
      "▁صدي": 7756,
      "▁التعلم": 7757,
      "▁مستمرة": 7758,
      "▁تكشف": 7759,
      "راها": 7760,
      "▁استهلاك": 7761,
      "▁إط": 7762,
      "▁الدائرة": 7763,
      "سيج": 7764,
      "▁انقر": 7765,
      "▁مِنَ": 7766,
      "▁الإقليمية": 7767,
      "▁حبيب": 7768,
      "▁داود": 7769,
      "▁ولقد": 7770,
      "▁واعتبر": 7771,
      "▁حقيقي": 7772,
      "▁المبلغ": 7773,
      "▁انتهى": 7774,
      "ميت": 7775,
      "ربول": 7776,
      "▁بغير": 7777,
      "▁فخ": 7778,
      "▁الشرك": 7779,
      "شيط": 7780,
      "▁تجديد": 7781,
      "▁توفي": 7782,
      "▁رسمية": 7783,
      "جمعية": 7784,
      "▁نمط": 7785,
      "▁المنظمات": 7786,
      "▁والأد": 7787,
      "▁بدقة": 7788,
      "وفية": 7789,
      "ومني": 7790,
      "▁المحتمل": 7791,
      "▁أمنية": 7792,
      "عاش": 7793,
      "▁لحل": 7794,
      "▁عُ": 7795,
      "قلين": 7796,
      "▁كرب": 7797,
      "▁اللحظة": 7798,
      "▁تقليل": 7799,
      "▁دائمًا": 7800,
      "▁وإعادة": 7801,
      "ِير": 7802,
      "▁صعبة": 7803,
      "▁كثيراً": 7804,
      "▁انتها": 7805,
      "ذَا": 7806,
      "▁تخفيض": 7807,
      "▁التعب": 7808,
      "▁المكرمة": 7809,
      "▁طاقة": 7810,
      "▁رش": 7811,
      "▁الغذاء": 7812,
      "▁هاد": 7813,
      "▁your": 7814,
      "▁والبح": 7815,
      "▁المصالح": 7816,
      "فاد": 7817,
      "▁تري": 7818,
      "▁ورو": 7819,
      "▁الثل": 7820,
      "▁مسجد": 7821,
      "▁وأكدت": 7822,
      "▁مسابقة": 7823,
      "ساوي": 7824,
      "▁متوا": 7825,
      "▁غسالة": 7826,
      "▁لبناء": 7827,
      "▁عَن": 7828,
      "▁الحشرات": 7829,
      "▁تلت": 7830,
      "▁المقالة": 7831,
      "▁تبر": 7832,
      "net": 7833,
      "ً،": 7834,
      "▁معايير": 7835,
      "▁الرئاسة": 7836,
      "اميك": 7837,
      "ابط": 7838,
      "ِيَ": 7839,
      "كوك": 7840,
      "▁العثم": 7841,
      "ضاً": 7842,
      "▁يعلن": 7843,
      "▁أسا": 7844,
      "▁بمد": 7845,
      "▁الحوثي": 7846,
      "▁المواقف": 7847,
      "▁الهندسة": 7848,
      "ave": 7849,
      "▁الجمال": 7850,
      "▁القائد": 7851,
      "▁الإقامة": 7852,
      "▁جدوى": 7853,
      "▁الراحل": 7854,
      "▁احترام": 7855,
      "▁بالرغم": 7856,
      "▁ويُ": 7857,
      "وائم": 7858,
      "▁الشهير": 7859,
      "▁النصف": 7860,
      "▁وبما": 7861,
      "▁عيني": 7862,
      "▁الإنجليزي": 7863,
      "▁الحادث": 7864,
      "يسر": 7865,
      "▁يترك": 7866,
      "ولوجية": 7867,
      "▁الوسطى": 7868,
      "يرو": 7869,
      "▁السمو": 7870,
      "▁الْق": 7871,
      "▁غضون": 7872,
      "واخر": 7873,
      "▁الأنظمة": 7874,
      "قان": 7875,
      "▁الاستثمارات": 7876,
      "▁المشروعات": 7877,
      "▁عدن": 7878,
      "▁قضاء": 7879,
      "بيات": 7880,
      "▁الملح": 7881,
      "▁الرحم": 7882,
      "▁المسألة": 7883,
      "▁جيل": 7884,
      "▁يتجاوز": 7885,
      "▁كونه": 7886,
      "▁الفار": 7887,
      "▁ستت": 7888,
      "▁وقدم": 7889,
      "hatsApp": 7890,
      "▁مقات": 7891,
      "بوط": 7892,
      "▁الديني": 7893,
      "▁المجموعات": 7894,
      "▁النهضة": 7895,
      "قيبة": 7896,
      "▁وعي": 7897,
      "▁الهر": 7898,
      "▁الرحيم": 7899,
      "▁المراكز": 7900,
      "▁كيلوم": 7901,
      "كك": 7902,
      "▁صدور": 7903,
      "ous": 7904,
      "▁أستاذ": 7905,
      "▁وأوضحت": 7906,
      "ليمة": 7907,
      "▁ممتاز": 7908,
      "▁أبواب": 7909,
      "▁عود": 7910,
      "▁البرازيل": 7911,
      "▁بدعم": 7912,
      "َخ": 7913,
      "▁مدونة": 7914,
      "يفه": 7915,
      "▁price": 7916,
      "▁ملاحظة": 7917,
      "أثر": 7918,
      "▁نُ": 7919,
      "▁et": 7920,
      "لفات": 7921,
      "▁عاجل": 7922,
      "ريه": 7923,
      "▁بِال": 7924,
      "َز": 7925,
      "▁عائل": 7926,
      "ليها": 7927,
      "يرون": 7928,
      "▁المشر": 7929,
      "▁وفقًا": 7930,
      "▁العيش": 7931,
      "▁الإسباني": 7932,
      "ترف": 7933,
[...]
